-- HAR MLP weights — auto-generated by har_pipeline.py
-- DO NOT EDIT BY HAND
--
-- Memory layout:
--   0x000000 .. 0x008C3F  L0 weights (561x64)
--   0x008C40 .. 0x008C7F  L0 biases  (64)
--   0x008C80 .. 0x00947F  L1 weights (64x32)
--   0x009480 .. 0x00949F  L1 biases  (32)
--   0x0094A0 .. 0x00955F  L2 weights (32x6)
--   0x009560 .. 0x009565  L2 biases  (6)
--   0x009566 .. 0x009E29  Scaler mean    (561 x float32)
--   0x009E2A .. 0x00A6ED  Scaler inv_std (561 x float32)
--
WIDTH = 8;
DEPTH = 42734;
ADDRESS_RADIX = HEX;
DATA_RADIX = HEX;

CONTENT BEGIN
  0000  :  EA;
  0001  :  1E;
  0002  :  0A;
  0003  :  FC;
  0004  :  F9;
  0005  :  E2;
  0006  :  EA;
  0007  :  00;
  0008  :  09;
  0009  :  0B;
  000A  :  E6;
  000B  :  0F;
  000C  :  18;
  000D  :  F5;
  000E  :  EF;
  000F  :  DC;
  0010  :  F4;
  [0011..0012]  :  08;
  0013  :  E2;
  0014  :  18;
  0015  :  F3;
  0016  :  EB;
  0017  :  FF;
  0018  :  FC;
  0019  :  0F;
  001A  :  F6;
  001B  :  F0;
  001C  :  21;
  001D  :  EC;
  001E  :  F2;
  001F  :  F5;
  0020  :  E9;
  0021  :  10;
  0022  :  1F;
  0023  :  1B;
  0024  :  FF;
  0025  :  D8;
  0026  :  0B;
  0027  :  F4;
  0028  :  F5;
  0029  :  07;
  002A  :  E6;
  002B  :  0F;
  002C  :  EE;
  002D  :  F4;
  002E  :  E6;
  002F  :  05;
  0030  :  0D;
  0031  :  ED;
  0032  :  2C;
  0033  :  18;
  0034  :  1B;
  0035  :  17;
  0036  :  F5;
  0037  :  1E;
  0038  :  EF;
  0039  :  EB;
  003A  :  CE;
  003B  :  EC;
  003C  :  FB;
  003D  :  F2;
  003E  :  16;
  003F  :  0D;
  0040  :  E6;
  0041  :  0A;
  0042  :  E2;
  0043  :  03;
  0044  :  F7;
  0045  :  12;
  0046  :  14;
  0047  :  F4;
  0048  :  DC;
  0049  :  0B;
  004A  :  08;
  004B  :  1E;
  004C  :  07;
  004D  :  E7;
  004E  :  F6;
  004F  :  DB;
  0050  :  04;
  0051  :  15;
  0052  :  00;
  0053  :  D2;
  0054  :  F0;
  0055  :  EA;
  0056  :  00;
  0057  :  17;
  0058  :  18;
  0059  :  FD;
  005A  :  FC;
  005B  :  1A;
  005C  :  12;
  005D  :  01;
  005E  :  21;
  005F  :  06;
  0060  :  03;
  0061  :  FA;
  0062  :  E7;
  0063  :  F8;
  0064  :  EC;
  0065  :  03;
  0066  :  0E;
  0067  :  22;
  0068  :  11;
  0069  :  CB;
  006A  :  0A;
  006B  :  11;
  006C  :  E4;
  006D  :  FE;
  006E  :  F2;
  006F  :  F5;
  0070  :  1F;
  0071  :  1B;
  0072  :  12;
  0073  :  0E;
  0074  :  24;
  0075  :  D1;
  0076  :  0C;
  0077  :  FD;
  0078  :  13;
  0079  :  12;
  007A  :  0B;
  007B  :  E5;
  007C  :  F6;
  007D  :  F5;
  007E  :  0A;
  007F  :  1F;
  0080  :  CA;
  0081  :  FA;
  [0082..0083]  :  E2;
  0084  :  EF;
  0085  :  F2;
  0086  :  1C;
  0087  :  E3;
  0088  :  FE;
  0089  :  FC;
  008A  :  F8;
  008B  :  26;
  008C  :  13;
  008D  :  F1;
  008E  :  0B;
  008F  :  ED;
  0090  :  03;
  0091  :  D1;
  0092  :  08;
  0093  :  F9;
  0094  :  E6;
  0095  :  F3;
  0096  :  0A;
  0097  :  FA;
  0098  :  ED;
  0099  :  16;
  009A  :  25;
  009B  :  F3;
  009C  :  0D;
  009D  :  FE;
  009E  :  EB;
  009F  :  17;
  00A0  :  05;
  00A1  :  09;
  00A2  :  07;
  00A3  :  13;
  00A4  :  E4;
  00A5  :  13;
  00A6  :  ED;
  00A7  :  E7;
  00A8  :  F6;
  00A9  :  FF;
  00AA  :  03;
  00AB  :  E5;
  00AC  :  F9;
  00AD  :  F5;
  00AE  :  0D;
  00AF  :  F0;
  00B0  :  0C;
  00B1  :  F4;
  00B2  :  1D;
  00B3  :  E5;
  00B4  :  05;
  00B5  :  E4;
  00B6  :  03;
  00B7  :  17;
  00B8  :  F1;
  00B9  :  FF;
  00BA  :  16;
  00BB  :  FF;
  00BC  :  FC;
  00BD  :  E2;
  00BE  :  EC;
  00BF  :  16;
  00C0  :  13;
  00C1  :  01;
  00C2  :  F9;
  00C3  :  FB;
  00C4  :  18;
  00C5  :  1D;
  00C6  :  1A;
  00C7  :  0D;
  00C8  :  02;
  00C9  :  F0;
  00CA  :  EC;
  00CB  :  11;
  00CC  :  0A;
  00CD  :  EB;
  00CE  :  E6;
  00CF  :  05;
  00D0  :  DC;
  00D1  :  ED;
  00D2  :  10;
  00D3  :  0E;
  00D4  :  05;
  00D5  :  EF;
  00D6  :  06;
  00D7  :  F4;
  00D8  :  00;
  00D9  :  14;
  00DA  :  11;
  00DB  :  12;
  00DC  :  11;
  00DD  :  0E;
  00DE  :  E5;
  00DF  :  FA;
  00E0  :  F1;
  00E1  :  EE;
  00E2  :  23;
  00E3  :  01;
  00E4  :  21;
  00E5  :  04;
  00E6  :  15;
  00E7  :  FE;
  00E8  :  01;
  00E9  :  FD;
  00EA  :  E4;
  00EB  :  08;
  00EC  :  EF;
  00ED  :  DC;
  00EE  :  00;
  00EF  :  E8;
  00F0  :  27;
  00F1  :  17;
  00F2  :  23;
  00F3  :  F6;
  00F4  :  EF;
  00F5  :  16;
  00F6  :  F7;
  00F7  :  13;
  00F8  :  1B;
  00F9  :  15;
  00FA  :  EC;
  00FB  :  F3;
  00FC  :  12;
  00FD  :  F4;
  00FE  :  F7;
  00FF  :  FF;
  0100  :  24;
  0101  :  05;
  0102  :  0E;
  0103  :  E7;
  0104  :  02;
  0105  :  27;
  0106  :  EF;
  0107  :  FF;
  0108  :  1F;
  0109  :  14;
  010A  :  0B;
  010B  :  09;
  010C  :  F7;
  010D  :  F4;
  010E  :  11;
  010F  :  17;
  0110  :  20;
  0111  :  1A;
  0112  :  01;
  0113  :  09;
  0114  :  0F;
  0115  :  08;
  0116  :  0C;
  0117  :  13;
  0118  :  1B;
  0119  :  FC;
  011A  :  F2;
  011B  :  E3;
  011C  :  07;
  011D  :  EB;
  011E  :  FC;
  011F  :  05;
  0120  :  F6;
  0121  :  07;
  0122  :  EA;
  0123  :  E1;
  0124  :  18;
  0125  :  F4;
  0126  :  E8;
  0127  :  00;
  0128  :  0F;
  0129  :  EE;
  012A  :  FF;
  012B  :  E3;
  012C  :  E9;
  012D  :  FA;
  012E  :  FD;
  012F  :  07;
  0130  :  0E;
  0131  :  18;
  0132  :  07;
  0133  :  F4;
  0134  :  0A;
  0135  :  F1;
  0136  :  07;
  0137  :  E8;
  0138  :  E0;
  0139  :  21;
  013A  :  0E;
  013B  :  09;
  013C  :  F8;
  013D  :  E9;
  013E  :  EF;
  013F  :  ED;
  0140  :  0C;
  0141  :  08;
  0142  :  0F;
  0143  :  F0;
  0144  :  19;
  0145  :  16;
  0146  :  06;
  0147  :  03;
  0148  :  FF;
  0149  :  F7;
  014A  :  FB;
  014B  :  0C;
  014C  :  E3;
  014D  :  EA;
  014E  :  E0;
  014F  :  E9;
  0150  :  1B;
  0151  :  0C;
  0152  :  00;
  0153  :  EF;
  0154  :  FB;
  0155  :  FE;
  0156  :  EE;
  0157  :  FE;
  0158  :  FF;
  0159  :  0C;
  015A  :  06;
  015B  :  E2;
  015C  :  F8;
  015D  :  10;
  015E  :  FF;
  015F  :  16;
  0160  :  0F;
  0161  :  F0;
  0162  :  EB;
  0163  :  08;
  0164  :  E8;
  0165  :  03;
  0166  :  1C;
  0167  :  00;
  0168  :  F8;
  0169  :  08;
  016A  :  F6;
  016B  :  FE;
  016C  :  1B;
  016D  :  F2;
  016E  :  1A;
  016F  :  16;
  0170  :  EF;
  0171  :  E3;
  0172  :  F0;
  0173  :  E0;
  0174  :  E4;
  0175  :  0A;
  0176  :  F0;
  0177  :  F4;
  0178  :  14;
  0179  :  E9;
  017A  :  0D;
  017B  :  EE;
  017C  :  E4;
  017D  :  0A;
  017E  :  0E;
  017F  :  14;
  0180  :  08;
  0181  :  0B;
  0182  :  F5;
  0183  :  F1;
  0184  :  19;
  0185  :  16;
  0186  :  22;
  0187  :  F7;
  0188  :  F3;
  0189  :  19;
  018A  :  F5;
  018B  :  13;
  018C  :  18;
  018D  :  03;
  018E  :  0F;
  018F  :  0A;
  0190  :  E2;
  0191  :  1A;
  0192  :  0D;
  0193  :  15;
  0194  :  F1;
  0195  :  17;
  0196  :  F3;
  0197  :  E7;
  0198  :  22;
  0199  :  EC;
  019A  :  FD;
  019B  :  19;
  019C  :  22;
  019D  :  0D;
  019E  :  06;
  019F  :  00;
  01A0  :  F4;
  01A1  :  F3;
  01A2  :  11;
  01A3  :  16;
  01A4  :  1A;
  01A5  :  0E;
  01A6  :  E9;
  01A7  :  FE;
  01A8  :  E1;
  01A9  :  00;
  01AA  :  F3;
  01AB  :  12;
  01AC  :  F3;
  [01AD..01AE]  :  E2;
  01AF  :  0B;
  01B0  :  12;
  01B1  :  E3;
  01B2  :  F1;
  01B3  :  09;
  01B4  :  F2;
  01B5  :  0F;
  01B6  :  08;
  01B7  :  DF;
  01B8  :  E5;
  01B9  :  1B;
  01BA  :  F1;
  01BB  :  F2;
  01BC  :  0F;
  01BD  :  1A;
  01BE  :  28;
  01BF  :  0B;
  01C0  :  03;
  01C1  :  DF;
  01C2  :  1B;
  01C3  :  03;
  01C4  :  F5;
  01C5  :  22;
  01C6  :  ED;
  01C7  :  FD;
  01C8  :  EB;
  01C9  :  04;
  01CA  :  E4;
  01CB  :  E5;
  01CC  :  E9;
  01CD  :  09;
  01CE  :  0D;
  01CF  :  09;
  01D0  :  27;
  01D1  :  FA;
  01D2  :  F3;
  01D3  :  1F;
  01D4  :  EC;
  01D5  :  1B;
  01D6  :  E3;
  01D7  :  1D;
  01D8  :  E7;
  01D9  :  1D;
  01DA  :  FA;
  01DB  :  1A;
  01DC  :  E9;
  01DD  :  0B;
  01DE  :  1A;
  01DF  :  04;
  01E0  :  0B;
  01E1  :  0E;
  01E2  :  04;
  01E3  :  03;
  01E4  :  09;
  01E5  :  15;
  01E6  :  E3;
  01E7  :  F1;
  01E8  :  1A;
  01E9  :  17;
  01EA  :  F5;
  01EB  :  03;
  01EC  :  F8;
  01ED  :  E5;
  01EE  :  F9;
  01EF  :  F6;
  01F0  :  04;
  01F1  :  E1;
  01F2  :  22;
  01F3  :  1C;
  01F4  :  02;
  [01F5..01F6]  :  01;
  01F7  :  16;
  01F8  :  08;
  01F9  :  F2;
  [01FA..01FB]  :  12;
  01FC  :  19;
  01FD  :  0B;
  01FE  :  0A;
  01FF  :  F8;
  0200  :  23;
  0201  :  11;
  0202  :  E9;
  0203  :  E1;
  0204  :  F6;
  0205  :  1A;
  0206  :  20;
  0207  :  E7;
  0208  :  09;
  0209  :  FF;
  020A  :  20;
  020B  :  11;
  020C  :  16;
  020D  :  00;
  020E  :  F6;
  020F  :  F8;
  0210  :  EA;
  0211  :  16;
  0212  :  15;
  0213  :  27;
  0214  :  19;
  0215  :  03;
  0216  :  12;
  0217  :  1D;
  0218  :  1B;
  0219  :  F7;
  021A  :  FB;
  021B  :  E7;
  021C  :  1A;
  021D  :  0F;
  021E  :  EE;
  021F  :  0B;
  0220  :  0C;
  0221  :  FD;
  0222  :  ED;
  0223  :  0A;
  0224  :  06;
  0225  :  0F;
  0226  :  02;
  0227  :  11;
  0228  :  02;
  0229  :  03;
  022A  :  10;
  022B  :  F6;
  022C  :  E9;
  022D  :  DD;
  022E  :  0E;
  022F  :  05;
  0230  :  0E;
  0231  :  EB;
  0232  :  F2;
  0233  :  E0;
  0234  :  F4;
  0235  :  05;
  0236  :  02;
  0237  :  FB;
  0238  :  17;
  [0239..023A]  :  FB;
  023B  :  0C;
  023C  :  F5;
  023D  :  05;
  023E  :  1D;
  023F  :  17;
  0240  :  E1;
  0241  :  12;
  0242  :  FE;
  0243  :  F8;
  0244  :  0B;
  0245  :  1F;
  0246  :  04;
  0247  :  F2;
  0248  :  01;
  0249  :  F7;
  024A  :  E9;
  024B  :  E3;
  024C  :  F0;
  024D  :  F6;
  024E  :  EA;
  024F  :  01;
  0250  :  E5;
  0251  :  F7;
  0252  :  27;
  0253  :  FE;
  0254  :  06;
  0255  :  EC;
  0256  :  E6;
  0257  :  EB;
  0258  :  F6;
  [0259..025A]  :  F8;
  025B  :  E4;
  025C  :  F3;
  025D  :  05;
  025E  :  EB;
  025F  :  FD;
  0260  :  02;
  0261  :  08;
  0262  :  EB;
  0263  :  1E;
  0264  :  11;
  0265  :  E0;
  0266  :  1D;
  0267  :  18;
  0268  :  E2;
  0269  :  F0;
  026A  :  09;
  026B  :  0A;
  026C  :  E3;
  026D  :  E7;
  026E  :  ED;
  026F  :  FB;
  0270  :  15;
  0271  :  F2;
  0272  :  0A;
  0273  :  0D;
  0274  :  F4;
  0275  :  EE;
  0276  :  02;
  0277  :  0F;
  [0278..0279]  :  FF;
  027A  :  E0;
  027B  :  F6;
  027C  :  FE;
  027D  :  EE;
  027E  :  FF;
  027F  :  F4;
  0280  :  ED;
  0281  :  EE;
  0282  :  FB;
  0283  :  F6;
  0284  :  E5;
  0285  :  22;
  [0286..0287]  :  0A;
  0288  :  19;
  0289  :  07;
  028A  :  E8;
  028B  :  00;
  028C  :  07;
  028D  :  0F;
  028E  :  FA;
  028F  :  E9;
  0290  :  FC;
  0291  :  F6;
  0292  :  0C;
  0293  :  0D;
  0294  :  F5;
  0295  :  1E;
  0296  :  08;
  0297  :  F0;
  0298  :  ED;
  0299  :  EE;
  029A  :  EB;
  029B  :  E6;
  029C  :  ED;
  029D  :  FC;
  029E  :  E9;
  029F  :  19;
  02A0  :  E8;
  [02A1..02A2]  :  02;
  02A3  :  1A;
  02A4  :  EE;
  02A5  :  F4;
  02A6  :  1F;
  02A7  :  15;
  02A8  :  12;
  02A9  :  F2;
  02AA  :  E9;
  02AB  :  09;
  02AC  :  1E;
  02AD  :  FB;
  02AE  :  FC;
  02AF  :  F4;
  02B0  :  11;
  02B1  :  E9;
  02B2  :  FA;
  02B3  :  FC;
  02B4  :  FD;
  02B5  :  F1;
  02B6  :  F3;
  02B7  :  08;
  02B8  :  F1;
  02B9  :  0B;
  02BA  :  E5;
  02BB  :  F7;
  02BC  :  03;
  02BD  :  DF;
  02BE  :  FB;
  02BF  :  E7;
  02C0  :  ED;
  02C1  :  19;
  02C2  :  FD;
  02C3  :  0C;
  02C4  :  EF;
  02C5  :  15;
  02C6  :  0E;
  02C7  :  00;
  02C8  :  FF;
  02C9  :  02;
  02CA  :  F7;
  02CB  :  17;
  02CC  :  12;
  02CD  :  22;
  02CE  :  E3;
  02CF  :  16;
  02D0  :  21;
  02D1  :  F2;
  02D2  :  EC;
  02D3  :  1B;
  02D4  :  FD;
  02D5  :  13;
  02D6  :  E9;
  02D7  :  12;
  02D8  :  FB;
  02D9  :  F3;
  02DA  :  EA;
  02DB  :  14;
  02DC  :  07;
  02DD  :  08;
  02DE  :  F9;
  02DF  :  14;
  02E0  :  FB;
  02E1  :  1B;
  02E2  :  00;
  02E3  :  F8;
  02E4  :  02;
  02E5  :  F6;
  02E6  :  0B;
  02E7  :  FB;
  02E8  :  EE;
  02E9  :  14;
  02EA  :  EC;
  02EB  :  FB;
  02EC  :  16;
  02ED  :  03;
  02EE  :  E9;
  02EF  :  15;
  02F0  :  0C;
  02F1  :  F1;
  02F2  :  EF;
  02F3  :  0D;
  02F4  :  06;
  02F5  :  FA;
  02F6  :  1C;
  02F7  :  0E;
  02F8  :  E8;
  02F9  :  F9;
  02FA  :  ED;
  02FB  :  0F;
  02FC  :  DC;
  02FD  :  03;
  02FE  :  19;
  02FF  :  11;
  0300  :  F1;
  0301  :  1B;
  0302  :  DE;
  0303  :  0F;
  0304  :  EA;
  0305  :  F1;
  0306  :  11;
  [0307..0308]  :  EF;
  0309  :  04;
  030A  :  11;
  030B  :  10;
  030C  :  0B;
  030D  :  FE;
  030E  :  F0;
  030F  :  F7;
  0310  :  ED;
  0311  :  17;
  0312  :  FD;
  0313  :  F4;
  0314  :  01;
  0315  :  1A;
  0316  :  ED;
  0317  :  05;
  0318  :  FA;
  0319  :  04;
  031A  :  E5;
  031B  :  1B;
  031C  :  18;
  031D  :  FA;
  031E  :  10;
  031F  :  1B;
  0320  :  0F;
  0321  :  EC;
  0322  :  FF;
  0323  :  08;
  0324  :  F5;
  0325  :  11;
  0326  :  1B;
  0327  :  19;
  0328  :  01;
  0329  :  E9;
  032A  :  24;
  032B  :  18;
  032C  :  E7;
  032D  :  22;
  032E  :  1E;
  032F  :  03;
  0330  :  00;
  0331  :  FD;
  0332  :  DF;
  0333  :  F8;
  0334  :  10;
  0335  :  E2;
  0336  :  EE;
  0337  :  FD;
  0338  :  02;
  0339  :  13;
  033A  :  FE;
  033B  :  FC;
  033C  :  10;
  033D  :  00;
  033E  :  E6;
  033F  :  00;
  0340  :  E6;
  0341  :  F3;
  0342  :  FA;
  0343  :  FD;
  0344  :  17;
  0345  :  F1;
  0346  :  03;
  0347  :  0B;
  0348  :  E1;
  0349  :  03;
  034A  :  F0;
  034B  :  21;
  034C  :  F1;
  034D  :  F4;
  034E  :  EA;
  034F  :  1A;
  0350  :  FE;
  0351  :  02;
  0352  :  DF;
  0353  :  08;
  0354  :  F2;
  0355  :  18;
  0356  :  F2;
  0357  :  EB;
  0358  :  DE;
  0359  :  F8;
  035A  :  05;
  035B  :  EA;
  035C  :  0E;
  035D  :  F7;
  035E  :  05;
  [035F..0360]  :  FA;
  0361  :  04;
  0362  :  E7;
  0363  :  EB;
  0364  :  11;
  0365  :  1D;
  0366  :  F7;
  0367  :  F8;
  0368  :  0B;
  0369  :  FB;
  036A  :  ED;
  036B  :  F1;
  036C  :  0E;
  036D  :  12;
  036E  :  E9;
  036F  :  F3;
  0370  :  E9;
  0371  :  10;
  0372  :  DC;
  0373  :  E9;
  0374  :  0F;
  0375  :  EE;
  0376  :  06;
  0377  :  F4;
  0378  :  EA;
  0379  :  EF;
  037A  :  16;
  037B  :  17;
  037C  :  18;
  037D  :  FA;
  037E  :  01;
  037F  :  F2;
  0380  :  ED;
  0381  :  1D;
  0382  :  E0;
  0383  :  E5;
  0384  :  EA;
  0385  :  DF;
  0386  :  E7;
  0387  :  07;
  0388  :  F6;
  [0389..038A]  :  12;
  038B  :  FD;
  038C  :  F4;
  038D  :  F6;
  038E  :  07;
  038F  :  F5;
  0390  :  08;
  0391  :  FC;
  0392  :  00;
  0393  :  FB;
  0394  :  F5;
  0395  :  19;
  0396  :  09;
  0397  :  E7;
  0398  :  15;
  0399  :  00;
  [039A..039B]  :  17;
  039C  :  F8;
  039D  :  D9;
  039E  :  F6;
  039F  :  FE;
  03A0  :  05;
  03A1  :  F3;
  03A2  :  E7;
  03A3  :  12;
  03A4  :  19;
  03A5  :  05;
  03A6  :  E6;
  03A7  :  F7;
  03A8  :  E7;
  03A9  :  17;
  03AA  :  EC;
  03AB  :  08;
  03AC  :  EF;
  03AD  :  0C;
  03AE  :  0F;
  03AF  :  14;
  03B0  :  ED;
  03B1  :  E4;
  03B2  :  E3;
  03B3  :  18;
  03B4  :  15;
  03B5  :  02;
  03B6  :  FC;
  03B7  :  0A;
  03B8  :  EA;
  03B9  :  16;
  03BA  :  03;
  03BB  :  02;
  03BC  :  01;
  03BD  :  E5;
  03BE  :  E7;
  03BF  :  0E;
  03C0  :  E9;
  03C1  :  00;
  03C2  :  F5;
  03C3  :  FB;
  03C4  :  F7;
  03C5  :  FE;
  03C6  :  11;
  03C7  :  F0;
  [03C8..03C9]  :  05;
  03CA  :  0A;
  03CB  :  15;
  03CC  :  0E;
  03CD  :  F3;
  03CE  :  E1;
  03CF  :  F0;
  03D0  :  07;
  03D1  :  E6;
  03D2  :  05;
  03D3  :  0C;
  03D4  :  F2;
  03D5  :  10;
  03D6  :  E5;
  03D7  :  EA;
  03D8  :  13;
  03D9  :  05;
  03DA  :  0E;
  03DB  :  F9;
  03DC  :  F5;
  03DD  :  1C;
  03DE  :  10;
  03DF  :  0E;
  03E0  :  F5;
  03E1  :  05;
  03E2  :  FD;
  03E3  :  EA;
  03E4  :  1F;
  03E5  :  E8;
  03E6  :  1C;
  03E7  :  FB;
  03E8  :  EA;
  03E9  :  01;
  03EA  :  0E;
  03EB  :  09;
  03EC  :  12;
  03ED  :  02;
  03EE  :  07;
  03EF  :  11;
  03F0  :  F5;
  03F1  :  FC;
  03F2  :  F8;
  03F3  :  1B;
  03F4  :  1F;
  03F5  :  E2;
  03F6  :  11;
  03F7  :  17;
  03F8  :  EB;
  03F9  :  06;
  03FA  :  13;
  03FB  :  E0;
  03FC  :  08;
  03FD  :  F2;
  03FE  :  21;
  03FF  :  1A;
  0400  :  0E;
  0401  :  F8;
  0402  :  12;
  0403  :  1A;
  0404  :  01;
  0405  :  13;
  0406  :  E4;
  0407  :  07;
  0408  :  E2;
  0409  :  F0;
  040A  :  E7;
  040B  :  06;
  040C  :  FB;
  040D  :  18;
  040E  :  E4;
  040F  :  EE;
  0410  :  F7;
  0411  :  15;
  [0412..0413]  :  05;
  0414  :  13;
  0415  :  06;
  0416  :  E7;
  0417  :  E9;
  0418  :  22;
  0419  :  E6;
  041A  :  23;
  041B  :  FF;
  041C  :  1D;
  041D  :  19;
  041E  :  1D;
  041F  :  F8;
  0420  :  0D;
  0421  :  F4;
  0422  :  01;
  0423  :  16;
  0424  :  20;
  0425  :  19;
  0426  :  17;
  [0427..0428]  :  F8;
  0429  :  0B;
  042A  :  E8;
  042B  :  E3;
  042C  :  EF;
  [042D..042E]  :  EC;
  042F  :  EA;
  0430  :  F2;
  0431  :  DD;
  0432  :  27;
  0433  :  F9;
  0434  :  0B;
  0435  :  05;
  0436  :  E3;
  0437  :  0C;
  0438  :  10;
  0439  :  E1;
  043A  :  F4;
  043B  :  0F;
  043C  :  19;
  043D  :  FD;
  043E  :  12;
  043F  :  E7;
  0440  :  25;
  0441  :  E9;
  0442  :  22;
  0443  :  06;
  0444  :  FF;
  0445  :  0A;
  0446  :  EE;
  0447  :  EA;
  0448  :  F3;
  0449  :  F2;
  044A  :  0C;
  044B  :  F3;
  044C  :  E2;
  044D  :  1C;
  044E  :  16;
  044F  :  23;
  0450  :  25;
  0451  :  F1;
  0452  :  F5;
  0453  :  1A;
  0454  :  07;
  0455  :  E8;
  0456  :  15;
  0457  :  ED;
  0458  :  F0;
  0459  :  03;
  045A  :  FF;
  045B  :  03;
  045C  :  E8;
  045D  :  1B;
  045E  :  F1;
  045F  :  E6;
  0460  :  15;
  0461  :  1D;
  0462  :  18;
  0463  :  11;
  0464  :  0A;
  0465  :  06;
  0466  :  E6;
  [0467..0468]  :  F7;
  0469  :  EF;
  046A  :  06;
  046B  :  FA;
  046C  :  EE;
  046D  :  E8;
  046E  :  0F;
  046F  :  E2;
  0470  :  13;
  [0471..0472]  :  FD;
  0473  :  03;
  0474  :  0C;
  0475  :  F1;
  0476  :  17;
  0477  :  01;
  0478  :  F2;
  0479  :  20;
  047A  :  0D;
  047B  :  0E;
  047C  :  12;
  047D  :  16;
  047E  :  0D;
  047F  :  13;
  0480  :  12;
  0481  :  0A;
  0482  :  07;
  0483  :  0B;
  0484  :  E8;
  0485  :  1B;
  0486  :  15;
  0487  :  E0;
  0488  :  12;
  0489  :  ED;
  048A  :  FA;
  048B  :  0B;
  048C  :  ED;
  048D  :  12;
  048E  :  0F;
  048F  :  09;
  0490  :  E1;
  0491  :  F3;
  0492  :  03;
  0493  :  22;
  0494  :  04;
  0495  :  F2;
  0496  :  0C;
  0497  :  06;
  0498  :  11;
  0499  :  EC;
  049A  :  14;
  049B  :  00;
  049C  :  18;
  049D  :  FB;
  049E  :  04;
  049F  :  17;
  04A0  :  EB;
  04A1  :  1F;
  04A2  :  0B;
  04A3  :  EB;
  04A4  :  F3;
  04A5  :  0E;
  04A6  :  EC;
  04A7  :  FD;
  04A8  :  F7;
  04A9  :  07;
  04AA  :  DF;
  04AB  :  13;
  04AC  :  1C;
  04AD  :  15;
  04AE  :  13;
  04AF  :  E6;
  04B0  :  0E;
  04B1  :  E1;
  04B2  :  E8;
  04B3  :  F3;
  04B4  :  04;
  04B5  :  11;
  04B6  :  12;
  04B7  :  F8;
  04B8  :  F3;
  04B9  :  23;
  04BA  :  F5;
  04BB  :  F7;
  04BC  :  E8;
  [04BD..04BE]  :  10;
  04BF  :  ED;
  04C0  :  E4;
  04C1  :  04;
  04C2  :  0E;
  04C3  :  F8;
  04C4  :  22;
  04C5  :  EE;
  04C6  :  01;
  04C7  :  18;
  04C8  :  FA;
  04C9  :  10;
  04CA  :  F6;
  04CB  :  EB;
  04CC  :  1C;
  04CD  :  FF;
  04CE  :  19;
  04CF  :  EA;
  04D0  :  EC;
  04D1  :  E5;
  04D2  :  14;
  04D3  :  F9;
  04D4  :  11;
  04D5  :  FD;
  04D6  :  16;
  04D7  :  F1;
  04D8  :  1E;
  [04D9..04DA]  :  15;
  04DB  :  13;
  04DC  :  16;
  04DD  :  11;
  04DE  :  E8;
  04DF  :  E7;
  04E0  :  1A;
  04E1  :  05;
  04E2  :  19;
  04E3  :  00;
  04E4  :  F1;
  04E5  :  E6;
  04E6  :  08;
  04E7  :  FC;
  04E8  :  EA;
  04E9  :  FD;
  04EA  :  DC;
  04EB  :  FF;
  04EC  :  F3;
  04ED  :  0B;
  04EE  :  EC;
  04EF  :  F8;
  04F0  :  EA;
  04F1  :  E2;
  04F2  :  03;
  04F3  :  FC;
  04F4  :  0E;
  04F5  :  EF;
  04F6  :  0A;
  04F7  :  12;
  04F8  :  0F;
  04F9  :  E1;
  04FA  :  F8;
  04FB  :  E3;
  04FC  :  ED;
  04FD  :  1D;
  04FE  :  F3;
  04FF  :  FC;
  0500  :  13;
  0501  :  04;
  0502  :  0F;
  0503  :  E1;
  0504  :  ED;
  0505  :  0B;
  0506  :  EA;
  0507  :  F4;
  0508  :  EB;
  0509  :  EE;
  050A  :  F9;
  050B  :  E6;
  050C  :  07;
  050D  :  0D;
  050E  :  0F;
  050F  :  F1;
  0510  :  F7;
  0511  :  EC;
  0512  :  08;
  0513  :  15;
  0514  :  E1;
  0515  :  1A;
  0516  :  E6;
  0517  :  01;
  0518  :  0E;
  0519  :  1B;
  051A  :  05;
  051B  :  0E;
  051C  :  FC;
  051D  :  1E;
  051E  :  E4;
  051F  :  19;
  0520  :  04;
  0521  :  15;
  [0522..0523]  :  03;
  0524  :  06;
  0525  :  09;
  0526  :  E6;
  0527  :  E4;
  0528  :  F0;
  0529  :  EA;
  052A  :  0F;
  052B  :  EB;
  052C  :  25;
  052D  :  EE;
  052E  :  E7;
  052F  :  13;
  0530  :  0A;
  0531  :  FB;
  0532  :  08;
  0533  :  0C;
  0534  :  E5;
  0535  :  1D;
  0536  :  2B;
  0537  :  0B;
  0538  :  EB;
  0539  :  17;
  053A  :  DF;
  053B  :  E3;
  053C  :  EF;
  053D  :  FA;
  053E  :  19;
  053F  :  0C;
  0540  :  15;
  0541  :  F5;
  0542  :  FC;
  0543  :  F7;
  0544  :  1D;
  0545  :  EA;
  0546  :  18;
  0547  :  01;
  0548  :  FE;
  0549  :  14;
  054A  :  04;
  054B  :  15;
  054C  :  1C;
  054D  :  FF;
  054E  :  ED;
  054F  :  0D;
  0550  :  1E;
  0551  :  EF;
  0552  :  0A;
  0553  :  13;
  0554  :  09;
  0555  :  E9;
  0556  :  0C;
  0557  :  1B;
  0558  :  F2;
  0559  :  FA;
  055A  :  1A;
  055B  :  EA;
  055C  :  13;
  055D  :  09;
  055E  :  EE;
  055F  :  16;
  0560  :  02;
  0561  :  07;
  0562  :  FC;
  0563  :  06;
  0564  :  F1;
  0565  :  F8;
  0566  :  1C;
  0567  :  ED;
  0568  :  0A;
  0569  :  F4;
  056A  :  09;
  056B  :  E5;
  056C  :  1C;
  056D  :  F6;
  056E  :  F0;
  056F  :  E3;
  0570  :  EF;
  0571  :  FD;
  0572  :  00;
  0573  :  11;
  0574  :  FC;
  0575  :  F0;
  0576  :  0C;
  0577  :  0A;
  0578  :  EA;
  0579  :  ED;
  057A  :  DE;
  057B  :  0A;
  057C  :  04;
  057D  :  FB;
  057E  :  1D;
  057F  :  0D;
  0580  :  17;
  0581  :  19;
  0582  :  04;
  0583  :  EC;
  0584  :  E3;
  0585  :  F2;
  0586  :  06;
  0587  :  0A;
  0588  :  F3;
  0589  :  F8;
  058A  :  F4;
  058B  :  0E;
  058C  :  EF;
  058D  :  FE;
  058E  :  E8;
  058F  :  EE;
  0590  :  2F;
  0591  :  26;
  0592  :  E2;
  0593  :  1B;
  0594  :  06;
  0595  :  16;
  0596  :  02;
  0597  :  FD;
  0598  :  F2;
  0599  :  0A;
  059A  :  D7;
  059B  :  E0;
  059C  :  07;
  059D  :  21;
  059E  :  E7;
  059F  :  0C;
  05A0  :  20;
  05A1  :  EA;
  05A2  :  14;
  05A3  :  EF;
  05A4  :  1D;
  05A5  :  F0;
  05A6  :  FC;
  05A7  :  19;
  05A8  :  18;
  05A9  :  0D;
  05AA  :  F7;
  05AB  :  FE;
  05AC  :  32;
  05AD  :  FC;
  05AE  :  E1;
  05AF  :  16;
  05B0  :  07;
  05B1  :  13;
  05B2  :  F4;
  05B3  :  04;
  05B4  :  E0;
  05B5  :  09;
  05B6  :  FB;
  05B7  :  12;
  05B8  :  29;
  05B9  :  03;
  05BA  :  12;
  05BB  :  01;
  05BC  :  0F;
  05BD  :  17;
  05BE  :  06;
  05BF  :  1A;
  05C0  :  1B;
  05C1  :  FA;
  05C2  :  F9;
  05C3  :  07;
  05C4  :  1C;
  05C5  :  10;
  05C6  :  1C;
  05C7  :  01;
  05C8  :  1B;
  05C9  :  EB;
  05CA  :  F7;
  05CB  :  E4;
  05CC  :  EA;
  05CD  :  FB;
  05CE  :  F7;
  05CF  :  0A;
  05D0  :  FC;
  05D1  :  FE;
  05D2  :  F7;
  05D3  :  FF;
  05D4  :  E4;
  05D5  :  DE;
  05D6  :  FB;
  05D7  :  11;
  05D8  :  0F;
  05D9  :  04;
  05DA  :  FB;
  05DB  :  1C;
  05DC  :  FF;
  05DD  :  03;
  05DE  :  E7;
  [05DF..05E0]  :  01;
  05E1  :  FE;
  05E2  :  0D;
  05E3  :  03;
  05E4  :  0D;
  05E5  :  13;
  05E6  :  1C;
  05E7  :  1B;
  05E8  :  12;
  05E9  :  DA;
  05EA  :  E7;
  05EB  :  DB;
  05EC  :  FF;
  05ED  :  17;
  05EE  :  ED;
  05EF  :  16;
  05F0  :  E8;
  05F1  :  19;
  05F2  :  03;
  05F3  :  DB;
  05F4  :  03;
  05F5  :  EA;
  [05F6..05F7]  :  F7;
  05F8  :  09;
  05F9  :  03;
  05FA  :  F9;
  05FB  :  08;
  05FC  :  06;
  05FD  :  EF;
  05FE  :  00;
  05FF  :  DF;
  0600  :  E9;
  0601  :  0E;
  0602  :  E6;
  0603  :  06;
  0604  :  18;
  0605  :  E3;
  0606  :  0F;
  0607  :  D5;
  0608  :  21;
  0609  :  01;
  060A  :  08;
  060B  :  F8;
  060C  :  D1;
  060D  :  0B;
  060E  :  20;
  060F  :  FA;
  0610  :  1A;
  0611  :  11;
  0612  :  F7;
  0613  :  E7;
  0614  :  FD;
  0615  :  FA;
  0616  :  13;
  0617  :  22;
  0618  :  F4;
  0619  :  F6;
  061A  :  18;
  061B  :  FB;
  061C  :  16;
  061D  :  FE;
  061E  :  0C;
  061F  :  F2;
  0620  :  13;
  0621  :  01;
  0622  :  0B;
  0623  :  F4;
  0624  :  13;
  0625  :  19;
  0626  :  E3;
  0627  :  EC;
  0628  :  E1;
  0629  :  01;
  062A  :  FB;
  062B  :  F2;
  062C  :  F1;
  062D  :  F9;
  062E  :  11;
  062F  :  FE;
  0630  :  20;
  0631  :  EC;
  0632  :  1A;
  0633  :  EE;
  0634  :  01;
  0635  :  06;
  0636  :  09;
  0637  :  21;
  0638  :  EE;
  0639  :  F3;
  063A  :  0C;
  063B  :  11;
  063C  :  E4;
  063D  :  ED;
  063E  :  EF;
  063F  :  1F;
  0640  :  E4;
  0641  :  F9;
  0642  :  E6;
  0643  :  F7;
  0644  :  EB;
  0645  :  F9;
  0646  :  E6;
  0647  :  15;
  0648  :  E8;
  0649  :  FC;
  064A  :  1D;
  064B  :  0D;
  064C  :  03;
  064D  :  F1;
  064E  :  F9;
  064F  :  12;
  0650  :  11;
  0651  :  0B;
  0652  :  01;
  0653  :  14;
  0654  :  01;
  0655  :  E6;
  0656  :  FD;
  0657  :  19;
  0658  :  FD;
  0659  :  01;
  065A  :  F3;
  065B  :  05;
  065C  :  E4;
  065D  :  F5;
  065E  :  15;
  065F  :  F3;
  0660  :  01;
  0661  :  09;
  0662  :  13;
  0663  :  F3;
  0664  :  F6;
  0665  :  E9;
  0666  :  2C;
  0667  :  20;
  0668  :  07;
  0669  :  15;
  066A  :  05;
  066B  :  0A;
  066C  :  E7;
  066D  :  14;
  066E  :  EE;
  066F  :  13;
  0670  :  0E;
  0671  :  06;
  0672  :  DA;
  0673  :  F7;
  0674  :  EE;
  0675  :  FB;
  0676  :  E7;
  0677  :  17;
  0678  :  02;
  0679  :  E8;
  067A  :  FE;
  067B  :  00;
  067C  :  09;
  067D  :  05;
  067E  :  13;
  067F  :  FD;
  0680  :  27;
  0681  :  0E;
  0682  :  F7;
  0683  :  1C;
  0684  :  E1;
  0685  :  19;
  0686  :  F8;
  0687  :  1D;
  0688  :  23;
  0689  :  11;
  068A  :  0E;
  068B  :  F8;
  068C  :  EB;
  068D  :  FE;
  068E  :  E7;
  068F  :  01;
  0690  :  05;
  0691  :  20;
  0692  :  06;
  0693  :  09;
  0694  :  EB;
  0695  :  18;
  0696  :  1E;
  0697  :  01;
  0698  :  EC;
  0699  :  1B;
  069A  :  E1;
  069B  :  F7;
  069C  :  F6;
  069D  :  E9;
  069E  :  EE;
  069F  :  EC;
  06A0  :  EE;
  06A1  :  F7;
  06A2  :  20;
  06A3  :  00;
  06A4  :  1D;
  06A5  :  F6;
  06A6  :  EF;
  06A7  :  FE;
  06A8  :  FB;
  06A9  :  EA;
  06AA  :  09;
  06AB  :  F4;
  06AC  :  01;
  06AD  :  02;
  06AE  :  DD;
  06AF  :  EA;
  06B0  :  0E;
  06B1  :  FC;
  06B2  :  E8;
  06B3  :  21;
  06B4  :  E3;
  06B5  :  0D;
  06B6  :  24;
  06B7  :  FA;
  06B8  :  E5;
  [06B9..06BA]  :  EF;
  06BB  :  DF;
  06BC  :  10;
  06BD  :  D6;
  06BE  :  02;
  06BF  :  1A;
  06C0  :  23;
  06C1  :  0E;
  06C2  :  FE;
  06C3  :  FD;
  06C4  :  F7;
  06C5  :  FE;
  06C6  :  EF;
  06C7  :  09;
  06C8  :  02;
  06C9  :  F3;
  06CA  :  F1;
  06CB  :  F6;
  06CC  :  0E;
  06CD  :  03;
  06CE  :  12;
  06CF  :  F8;
  06D0  :  01;
  06D1  :  F0;
  06D2  :  D9;
  06D3  :  10;
  06D4  :  0B;
  06D5  :  E9;
  06D6  :  03;
  06D7  :  E7;
  06D8  :  F9;
  06D9  :  E7;
  06DA  :  15;
  06DB  :  23;
  06DC  :  0E;
  06DD  :  01;
  06DE  :  F6;
  06DF  :  FD;
  06E0  :  F3;
  06E1  :  0F;
  06E2  :  E7;
  06E3  :  F8;
  06E4  :  E5;
  06E5  :  00;
  06E6  :  15;
  06E7  :  FC;
  06E8  :  FA;
  06E9  :  F1;
  06EA  :  F9;
  06EB  :  04;
  06EC  :  24;
  06ED  :  22;
  06EE  :  27;
  06EF  :  EF;
  06F0  :  00;
  06F1  :  FE;
  06F2  :  E6;
  06F3  :  0F;
  06F4  :  C8;
  06F5  :  14;
  06F6  :  08;
  06F7  :  0C;
  06F8  :  12;
  06F9  :  21;
  06FA  :  0D;
  06FB  :  1B;
  06FC  :  DC;
  06FD  :  13;
  06FE  :  E4;
  06FF  :  10;
  0700  :  E8;
  0701  :  0F;
  0702  :  D3;
  0703  :  FD;
  0704  :  21;
  0705  :  DD;
  0706  :  E3;
  0707  :  EC;
  0708  :  11;
  0709  :  0B;
  [070A..070B]  :  F4;
  070C  :  E6;
  070D  :  1E;
  070E  :  19;
  070F  :  E1;
  0710  :  D8;
  0711  :  ED;
  0712  :  20;
  0713  :  FA;
  0714  :  E1;
  0715  :  D3;
  0716  :  E2;
  0717  :  2C;
  0718  :  E4;
  0719  :  13;
  071A  :  1D;
  071B  :  F8;
  071C  :  F0;
  071D  :  EA;
  071E  :  07;
  071F  :  1D;
  [0720..0721]  :  0C;
  0722  :  E7;
  0723  :  2E;
  0724  :  23;
  0725  :  FB;
  0726  :  28;
  0727  :  1C;
  0728  :  EF;
  0729  :  0D;
  072A  :  12;
  072B  :  03;
  072C  :  C1;
  072D  :  F2;
  072E  :  0C;
  072F  :  E1;
  0730  :  07;
  0731  :  01;
  0732  :  10;
  0733  :  00;
  0734  :  4B;
  0735  :  E9;
  0736  :  DD;
  0737  :  E3;
  0738  :  0C;
  0739  :  07;
  073A  :  F6;
  073B  :  18;
  073C  :  10;
  073D  :  16;
  073E  :  28;
  073F  :  E7;
  0740  :  01;
  0741  :  FB;
  0742  :  05;
  0743  :  0E;
  0744  :  13;
  0745  :  FD;
  0746  :  E4;
  0747  :  F7;
  0748  :  16;
  0749  :  11;
  074A  :  F0;
  074B  :  E1;
  074C  :  FA;
  074D  :  0A;
  074E  :  18;
  074F  :  EF;
  0750  :  EB;
  0751  :  16;
  0752  :  09;
  0753  :  F3;
  0754  :  0E;
  0755  :  09;
  0756  :  F8;
  0757  :  07;
  0758  :  12;
  0759  :  0F;
  075A  :  10;
  075B  :  12;
  075C  :  EA;
  075D  :  F2;
  075E  :  E7;
  075F  :  ED;
  0760  :  0B;
  0761  :  12;
  0762  :  E2;
  0763  :  FF;
  0764  :  0D;
  0765  :  EA;
  0766  :  03;
  0767  :  19;
  0768  :  10;
  0769  :  ED;
  076A  :  F5;
  076B  :  10;
  076C  :  0F;
  076D  :  E6;
  076E  :  17;
  076F  :  E9;
  0770  :  09;
  0771  :  EF;
  0772  :  13;
  0773  :  FA;
  0774  :  E7;
  0775  :  F2;
  0776  :  EA;
  0777  :  16;
  0778  :  29;
  0779  :  E9;
  077A  :  F8;
  077B  :  0C;
  077C  :  17;
  077D  :  0A;
  077E  :  F3;
  077F  :  09;
  0780  :  17;
  0781  :  E3;
  0782  :  16;
  0783  :  FB;
  0784  :  11;
  0785  :  F1;
  [0786..0787]  :  0D;
  0788  :  14;
  0789  :  ED;
  078A  :  FA;
  078B  :  0E;
  078C  :  F7;
  078D  :  0A;
  078E  :  0C;
  078F  :  1C;
  0790  :  06;
  0791  :  16;
  0792  :  06;
  0793  :  F5;
  0794  :  DF;
  0795  :  F2;
  0796  :  11;
  0797  :  0B;
  0798  :  05;
  0799  :  0C;
  079A  :  F6;
  079B  :  E7;
  079C  :  F0;
  079D  :  01;
  079E  :  E3;
  079F  :  F3;
  07A0  :  09;
  07A1  :  19;
  07A2  :  24;
  07A3  :  15;
  07A4  :  0F;
  07A5  :  FF;
  07A6  :  05;
  07A7  :  0E;
  07A8  :  E1;
  07A9  :  F8;
  07AA  :  13;
  07AB  :  F8;
  07AC  :  F4;
  07AD  :  00;
  07AE  :  E3;
  07AF  :  F1;
  07B0  :  FC;
  07B1  :  DE;
  07B2  :  EC;
  07B3  :  16;
  07B4  :  FA;
  07B5  :  F8;
  07B6  :  FC;
  07B7  :  1E;
  07B8  :  E6;
  07B9  :  07;
  07BA  :  17;
  07BB  :  16;
  07BC  :  EF;
  07BD  :  0A;
  07BE  :  03;
  07BF  :  EF;
  07C0  :  E9;
  07C1  :  EF;
  07C2  :  06;
  07C3  :  F2;
  07C4  :  F9;
  07C5  :  05;
  07C6  :  0E;
  07C7  :  D7;
  07C8  :  08;
  07C9  :  E9;
  07CA  :  0B;
  07CB  :  FC;
  07CC  :  17;
  07CD  :  DF;
  07CE  :  E1;
  07CF  :  E4;
  07D0  :  E7;
  07D1  :  F3;
  07D2  :  0F;
  07D3  :  F2;
  07D4  :  F0;
  07D5  :  07;
  07D6  :  F9;
  07D7  :  17;
  07D8  :  DC;
  07D9  :  E6;
  07DA  :  E2;
  07DB  :  F2;
  07DC  :  20;
  07DD  :  F1;
  07DE  :  0B;
  07DF  :  FD;
  07E0  :  F7;
  07E1  :  22;
  07E2  :  DC;
  07E3  :  0D;
  07E4  :  13;
  07E5  :  07;
  07E6  :  16;
  07E7  :  E5;
  07E8  :  FE;
  07E9  :  EF;
  07EA  :  0E;
  07EB  :  11;
  07EC  :  07;
  07ED  :  0D;
  07EE  :  FC;
  07EF  :  0A;
  07F0  :  F8;
  07F1  :  29;
  07F2  :  05;
  07F3  :  E7;
  07F4  :  ED;
  07F5  :  EF;
  07F6  :  F0;
  07F7  :  F4;
  07F8  :  1D;
  07F9  :  04;
  07FA  :  05;
  07FB  :  FF;
  07FC  :  08;
  07FD  :  21;
  07FE  :  DF;
  07FF  :  1F;
  0800  :  EE;
  0801  :  DA;
  0802  :  ED;
  0803  :  11;
  0804  :  F8;
  0805  :  19;
  0806  :  12;
  0807  :  14;
  0808  :  FA;
  0809  :  EF;
  080A  :  0C;
  080B  :  16;
  080C  :  E4;
  080D  :  05;
  080E  :  1D;
  080F  :  06;
  0810  :  E2;
  0811  :  18;
  0812  :  F4;
  0813  :  C3;
  0814  :  DA;
  0815  :  E9;
  0816  :  05;
  0817  :  07;
  0818  :  01;
  0819  :  2B;
  081A  :  26;
  081B  :  20;
  081C  :  F4;
  081D  :  F0;
  081E  :  28;
  081F  :  14;
  0820  :  E8;
  0821  :  E5;
  0822  :  05;
  0823  :  1D;
  0824  :  05;
  0825  :  04;
  0826  :  E3;
  0827  :  23;
  0828  :  01;
  0829  :  E6;
  082A  :  0D;
  082B  :  1B;
  082C  :  D5;
  082D  :  15;
  082E  :  F8;
  082F  :  0A;
  [0830..0831]  :  08;
  0832  :  11;
  0833  :  F1;
  0834  :  0E;
  0835  :  F3;
  0836  :  E1;
  [0837..0838]  :  09;
  0839  :  F0;
  083A  :  2B;
  083B  :  0E;
  083C  :  ED;
  083D  :  12;
  083E  :  F3;
  083F  :  D7;
  0840  :  E3;
  0841  :  18;
  0842  :  03;
  0843  :  E3;
  0844  :  FB;
  0845  :  02;
  0846  :  DD;
  0847  :  1B;
  0848  :  0D;
  0849  :  FA;
  084A  :  1A;
  084B  :  FD;
  084C  :  1B;
  084D  :  08;
  084E  :  0A;
  084F  :  EC;
  0850  :  06;
  0851  :  03;
  0852  :  E5;
  0853  :  D7;
  [0854..0855]  :  04;
  0856  :  08;
  0857  :  12;
  0858  :  E7;
  0859  :  07;
  085A  :  ED;
  085B  :  15;
  085C  :  00;
  085D  :  F4;
  085E  :  08;
  085F  :  EF;
  0860  :  F4;
  0861  :  13;
  0862  :  F4;
  0863  :  FC;
  0864  :  F9;
  0865  :  0F;
  0866  :  0C;
  0867  :  D8;
  0868  :  0B;
  0869  :  10;
  086A  :  EF;
  086B  :  F8;
  086C  :  E6;
  086D  :  FF;
  086E  :  FA;
  086F  :  19;
  0870  :  05;
  0871  :  0C;
  0872  :  E4;
  0873  :  1C;
  0874  :  F7;
  0875  :  23;
  0876  :  03;
  0877  :  E7;
  0878  :  0F;
  0879  :  F2;
  087A  :  11;
  087B  :  DD;
  087C  :  F3;
  087D  :  15;
  087E  :  E9;
  087F  :  15;
  0880  :  F5;
  0881  :  06;
  0882  :  0C;
  0883  :  0D;
  0884  :  FE;
  0885  :  EB;
  0886  :  F4;
  0887  :  F8;
  0888  :  12;
  0889  :  18;
  088A  :  13;
  088B  :  09;
  088C  :  13;
  088D  :  0B;
  088E  :  F8;
  088F  :  17;
  0890  :  14;
  0891  :  F6;
  0892  :  EF;
  0893  :  FF;
  0894  :  03;
  0895  :  14;
  0896  :  03;
  0897  :  06;
  0898  :  11;
  0899  :  EA;
  089A  :  FF;
  089B  :  DB;
  089C  :  2C;
  089D  :  20;
  089E  :  F0;
  089F  :  21;
  08A0  :  01;
  08A1  :  13;
  08A2  :  1A;
  08A3  :  0F;
  08A4  :  E9;
  08A5  :  1B;
  08A6  :  01;
  08A7  :  0A;
  08A8  :  11;
  08A9  :  F9;
  08AA  :  11;
  08AB  :  E5;
  08AC  :  0D;
  08AD  :  F7;
  08AE  :  E0;
  08AF  :  E8;
  08B0  :  E2;
  08B1  :  FC;
  08B2  :  0A;
  08B3  :  03;
  08B4  :  F7;
  08B5  :  F5;
  08B6  :  08;
  08B7  :  E9;
  08B8  :  18;
  08B9  :  10;
  08BA  :  01;
  08BB  :  06;
  08BC  :  16;
  08BD  :  EF;
  08BE  :  EA;
  08BF  :  F2;
  08C0  :  0E;
  08C1  :  EB;
  08C2  :  04;
  08C3  :  17;
  08C4  :  12;
  08C5  :  03;
  08C6  :  DE;
  08C7  :  0C;
  08C8  :  04;
  08C9  :  EE;
  08CA  :  E3;
  08CB  :  15;
  08CC  :  06;
  08CD  :  14;
  08CE  :  1A;
  08CF  :  12;
  08D0  :  02;
  08D1  :  03;
  08D2  :  F1;
  08D3  :  FC;
  [08D4..08D5]  :  11;
  08D6  :  21;
  08D7  :  F4;
  08D8  :  07;
  08D9  :  05;
  08DA  :  07;
  08DB  :  0E;
  08DC  :  D7;
  08DD  :  F8;
  08DE  :  E3;
  08DF  :  F5;
  08E0  :  F7;
  08E1  :  0F;
  08E2  :  11;
  08E3  :  0D;
  08E4  :  0C;
  08E5  :  03;
  08E6  :  09;
  08E7  :  D9;
  08E8  :  FE;
  08E9  :  FD;
  08EA  :  FA;
  08EB  :  E3;
  08EC  :  EC;
  08ED  :  EE;
  08EE  :  21;
  08EF  :  F5;
  08F0  :  00;
  08F1  :  F2;
  08F2  :  F9;
  08F3  :  FD;
  08F4  :  F2;
  08F5  :  03;
  [08F6..08F7]  :  E5;
  08F8  :  F8;
  08F9  :  E6;
  08FA  :  E1;
  08FB  :  FE;
  08FC  :  12;
  08FD  :  06;
  08FE  :  FE;
  08FF  :  F8;
  0900  :  24;
  0901  :  FA;
  0902  :  F9;
  0903  :  07;
  0904  :  E4;
  0905  :  03;
  0906  :  FA;
  0907  :  1F;
  0908  :  F9;
  0909  :  18;
  090A  :  1E;
  090B  :  F9;
  090C  :  F0;
  090D  :  FD;
  090E  :  E8;
  090F  :  F8;
  0910  :  13;
  0911  :  11;
  0912  :  0D;
  0913  :  0F;
  0914  :  F8;
  0915  :  FB;
  0916  :  0C;
  0917  :  D4;
  0918  :  1E;
  0919  :  EF;
  091A  :  E8;
  091B  :  FD;
  091C  :  04;
  091D  :  24;
  091E  :  FF;
  091F  :  EC;
  0920  :  F0;
  0921  :  09;
  0922  :  EF;
  0923  :  EE;
  0924  :  10;
  0925  :  FE;
  0926  :  E7;
  0927  :  F0;
  0928  :  00;
  0929  :  F0;
  092A  :  08;
  092B  :  E8;
  092C  :  F3;
  092D  :  FE;
  092E  :  18;
  092F  :  0D;
  0930  :  0C;
  0931  :  24;
  0932  :  06;
  0933  :  CD;
  0934  :  09;
  0935  :  CF;
  0936  :  05;
  0937  :  DD;
  0938  :  D5;
  0939  :  07;
  093A  :  14;
  093B  :  08;
  093C  :  F1;
  093D  :  E6;
  093E  :  F3;
  093F  :  ED;
  0940  :  14;
  0941  :  1F;
  0942  :  0F;
  0943  :  1A;
  0944  :  EF;
  0945  :  FB;
  0946  :  15;
  0947  :  E6;
  0948  :  0F;
  0949  :  04;
  094A  :  E1;
  094B  :  0C;
  094C  :  F6;
  094D  :  F4;
  094E  :  29;
  094F  :  1A;
  0950  :  03;
  0951  :  FA;
  0952  :  D3;
  0953  :  0D;
  0954  :  02;
  0955  :  FA;
  0956  :  FF;
  0957  :  E4;
  0958  :  E7;
  0959  :  E6;
  095A  :  FF;
  095B  :  FD;
  095C  :  D6;
  095D  :  E3;
  095E  :  0C;
  095F  :  14;
  0960  :  07;
  0961  :  F4;
  0962  :  F5;
  0963  :  DE;
  0964  :  FA;
  0965  :  15;
  0966  :  C4;
  0967  :  FE;
  0968  :  0C;
  0969  :  F7;
  096A  :  05;
  096B  :  D4;
  096C  :  10;
  096D  :  E8;
  096E  :  10;
  096F  :  11;
  0970  :  DC;
  0971  :  F8;
  0972  :  D1;
  0973  :  F6;
  0974  :  C9;
  0975  :  D2;
  0976  :  2B;
  0977  :  1A;
  0978  :  FB;
  0979  :  36;
  097A  :  F1;
  097B  :  47;
  097C  :  DF;
  097D  :  37;
  097E  :  F0;
  097F  :  1A;
  0980  :  18;
  0981  :  01;
  0982  :  19;
  0983  :  0F;
  0984  :  FC;
  0985  :  E6;
  0986  :  0A;
  0987  :  DC;
  0988  :  0F;
  0989  :  F8;
  098A  :  03;
  098B  :  07;
  098C  :  F8;
  098D  :  E5;
  098E  :  11;
  098F  :  FC;
  0990  :  E7;
  0991  :  E0;
  0992  :  ED;
  0993  :  22;
  0994  :  0E;
  0995  :  F2;
  0996  :  07;
  0997  :  F5;
  0998  :  EF;
  0999  :  1F;
  099A  :  03;
  099B  :  F0;
  099C  :  26;
  099D  :  0D;
  099E  :  F6;
  099F  :  12;
  09A0  :  18;
  09A1  :  F1;
  09A2  :  F6;
  09A3  :  D3;
  09A4  :  FF;
  09A5  :  03;
  09A6  :  E3;
  09A7  :  15;
  09A8  :  18;
  09A9  :  1F;
  09AA  :  00;
  09AB  :  0A;
  09AC  :  F6;
  09AD  :  FF;
  09AE  :  DE;
  09AF  :  0E;
  09B0  :  EC;
  09B1  :  1E;
  09B2  :  25;
  09B3  :  F1;
  09B4  :  02;
  09B5  :  23;
  09B6  :  F6;
  09B7  :  26;
  09B8  :  0E;
  09B9  :  04;
  09BA  :  E3;
  09BB  :  FB;
  09BC  :  09;
  09BD  :  F4;
  09BE  :  02;
  09BF  :  0C;
  09C0  :  17;
  09C1  :  03;
  09C2  :  2C;
  09C3  :  E4;
  09C4  :  FC;
  09C5  :  1B;
  09C6  :  0C;
  09C7  :  40;
  09C8  :  04;
  09C9  :  EA;
  09CA  :  1E;
  09CB  :  09;
  09CC  :  16;
  09CD  :  08;
  09CE  :  E0;
  09CF  :  04;
  09D0  :  22;
  09D1  :  E0;
  09D2  :  EE;
  09D3  :  28;
  09D4  :  F5;
  09D5  :  0D;
  09D6  :  10;
  09D7  :  04;
  09D8  :  24;
  09D9  :  F4;
  09DA  :  D9;
  09DB  :  DA;
  09DC  :  EB;
  09DD  :  F1;
  09DE  :  E3;
  09DF  :  1D;
  09E0  :  EB;
  09E1  :  19;
  09E2  :  10;
  09E3  :  0E;
  09E4  :  F3;
  09E5  :  CE;
  09E6  :  33;
  09E7  :  44;
  09E8  :  10;
  09E9  :  FC;
  09EA  :  2E;
  09EB  :  2F;
  09EC  :  FB;
  09ED  :  0E;
  09EE  :  F4;
  09EF  :  19;
  09F0  :  D2;
  09F1  :  F8;
  09F2  :  E3;
  09F3  :  12;
  09F4  :  03;
  09F5  :  0F;
  09F6  :  06;
  09F7  :  00;
  [09F8..09F9]  :  0D;
  09FA  :  F4;
  09FB  :  DD;
  09FC  :  18;
  09FD  :  DB;
  09FE  :  CE;
  09FF  :  EC;
  0A00  :  18;
  0A01  :  EC;
  0A02  :  EB;
  0A03  :  C5;
  0A04  :  02;
  0A05  :  F7;
  0A06  :  F8;
  0A07  :  1B;
  0A08  :  22;
  [0A09..0A0A]  :  1E;
  0A0B  :  34;
  0A0C  :  20;
  0A0D  :  F9;
  0A0E  :  C6;
  0A0F  :  EC;
  0A10  :  25;
  0A11  :  FF;
  0A12  :  FD;
  0A13  :  12;
  0A14  :  FD;
  0A15  :  2B;
  0A16  :  DA;
  0A17  :  05;
  0A18  :  18;
  0A19  :  0D;
  0A1A  :  D5;
  0A1B  :  F5;
  0A1C  :  EB;
  0A1D  :  13;
  0A1E  :  25;
  0A1F  :  23;
  0A20  :  0F;
  0A21  :  15;
  0A22  :  F1;
  0A23  :  11;
  0A24  :  F8;
  0A25  :  E6;
  0A26  :  00;
  0A27  :  EC;
  0A28  :  1C;
  0A29  :  D0;
  0A2A  :  26;
  0A2B  :  11;
  0A2C  :  F5;
  0A2D  :  17;
  0A2E  :  C4;
  0A2F  :  0A;
  0A30  :  14;
  0A31  :  D1;
  0A32  :  1D;
  0A33  :  F6;
  0A34  :  01;
  0A35  :  25;
  0A36  :  FC;
  0A37  :  EF;
  0A38  :  E1;
  0A39  :  CE;
  0A3A  :  2D;
  0A3B  :  BA;
  0A3C  :  2A;
  0A3D  :  F4;
  0A3E  :  02;
  0A3F  :  01;
  0A40  :  E7;
  0A41  :  34;
  0A42  :  D5;
  0A43  :  1D;
  0A44  :  03;
  0A45  :  E7;
  [0A46..0A47]  :  03;
  0A48  :  DD;
  0A49  :  E1;
  0A4A  :  F8;
  0A4B  :  0B;
  0A4C  :  FB;
  0A4D  :  06;
  0A4E  :  40;
  0A4F  :  29;
  0A50  :  FA;
  0A51  :  0D;
  0A52  :  08;
  0A53  :  00;
  0A54  :  B2;
  0A55  :  D8;
  0A56  :  16;
  0A57  :  0D;
  0A58  :  01;
  0A59  :  F9;
  0A5A  :  FE;
  0A5B  :  3B;
  0A5C  :  FA;
  0A5D  :  D5;
  0A5E  :  5D;
  0A5F  :  00;
  0A60  :  20;
  0A61  :  5E;
  0A62  :  E9;
  0A63  :  0C;
  0A64  :  F7;
  0A65  :  34;
  0A66  :  D7;
  0A67  :  6C;
  0A68  :  F6;
  0A69  :  BF;
  0A6A  :  D0;
  0A6B  :  EC;
  0A6C  :  F2;
  0A6D  :  18;
  0A6E  :  32;
  0A6F  :  DE;
  0A70  :  01;
  0A71  :  F7;
  0A72  :  13;
  0A73  :  CC;
  0A74  :  EF;
  0A75  :  AE;
  0A76  :  DE;
  0A77  :  07;
  0A78  :  E6;
  0A79  :  14;
  0A7A  :  11;
  0A7B  :  39;
  0A7C  :  DE;
  0A7D  :  05;
  0A7E  :  DF;
  0A7F  :  F8;
  0A80  :  EF;
  0A81  :  FB;
  0A82  :  F5;
  0A83  :  FA;
  0A84  :  E9;
  0A85  :  F0;
  0A86  :  17;
  0A87  :  13;
  0A88  :  05;
  0A89  :  EC;
  0A8A  :  0D;
  0A8B  :  12;
  0A8C  :  05;
  0A8D  :  18;
  0A8E  :  E3;
  0A8F  :  D5;
  0A90  :  0B;
  0A91  :  18;
  0A92  :  E4;
  0A93  :  E1;
  0A94  :  DE;
  0A95  :  F2;
  0A96  :  0D;
  0A97  :  0B;
  0A98  :  F6;
  0A99  :  F2;
  0A9A  :  E3;
  0A9B  :  FB;
  0A9C  :  ED;
  0A9D  :  10;
  0A9E  :  28;
  0A9F  :  E8;
  0AA0  :  1F;
  0AA1  :  FF;
  0AA2  :  0D;
  0AA3  :  FE;
  0AA4  :  F5;
  [0AA5..0AA6]  :  F8;
  0AA7  :  FC;
  0AA8  :  E6;
  0AA9  :  EE;
  0AAA  :  10;
  0AAB  :  03;
  0AAC  :  C2;
  0AAD  :  2E;
  0AAE  :  20;
  0AAF  :  10;
  0AB0  :  19;
  0AB1  :  09;
  0AB2  :  19;
  0AB3  :  DD;
  0AB4  :  FB;
  0AB5  :  F6;
  0AB6  :  E9;
  0AB7  :  ED;
  0AB8  :  07;
  0AB9  :  01;
  0ABA  :  17;
  0ABB  :  EA;
  0ABC  :  11;
  0ABD  :  0B;
  0ABE  :  F4;
  0ABF  :  08;
  0AC0  :  E7;
  0AC1  :  04;
  0AC2  :  0A;
  0AC3  :  F4;
  0AC4  :  F8;
  0AC5  :  16;
  0AC6  :  08;
  0AC7  :  D7;
  0AC8  :  DD;
  0AC9  :  DE;
  0ACA  :  01;
  0ACB  :  F8;
  0ACC  :  E6;
  0ACD  :  15;
  0ACE  :  FF;
  0ACF  :  F9;
  0AD0  :  01;
  0AD1  :  0D;
  0AD2  :  DE;
  0AD3  :  F3;
  0AD4  :  12;
  0AD5  :  F9;
  0AD6  :  1D;
  0AD7  :  03;
  0AD8  :  E1;
  0AD9  :  EE;
  0ADA  :  07;
  0ADB  :  EF;
  0ADC  :  DE;
  0ADD  :  10;
  0ADE  :  18;
  0ADF  :  08;
  0AE0  :  15;
  0AE1  :  F3;
  0AE2  :  17;
  0AE3  :  F8;
  0AE4  :  14;
  0AE5  :  29;
  0AE6  :  04;
  0AE7  :  20;
  0AE8  :  0C;
  0AE9  :  FC;
  0AEA  :  F9;
  0AEB  :  02;
  0AEC  :  EC;
  0AED  :  04;
  0AEE  :  2E;
  0AEF  :  ED;
  0AF0  :  0A;
  0AF1  :  26;
  [0AF2..0AF3]  :  15;
  0AF4  :  07;
  0AF5  :  1B;
  0AF6  :  10;
  0AF7  :  DE;
  0AF8  :  09;
  0AF9  :  1D;
  0AFA  :  EE;
  0AFB  :  0F;
  0AFC  :  08;
  0AFD  :  F0;
  0AFE  :  FE;
  0AFF  :  1F;
  0B00  :  F9;
  0B01  :  E4;
  0B02  :  DA;
  0B03  :  FA;
  0B04  :  15;
  0B05  :  EE;
  0B06  :  06;
  0B07  :  F9;
  0B08  :  F0;
  0B09  :  12;
  0B0A  :  10;
  0B0B  :  F9;
  0B0C  :  F8;
  0B0D  :  D9;
  0B0E  :  FB;
  0B0F  :  0A;
  0B10  :  E7;
  0B11  :  F1;
  0B12  :  EE;
  0B13  :  1C;
  0B14  :  1F;
  0B15  :  DF;
  0B16  :  10;
  0B17  :  00;
  0B18  :  FA;
  0B19  :  15;
  0B1A  :  22;
  0B1B  :  21;
  0B1C  :  FE;
  0B1D  :  F3;
  0B1E  :  1D;
  0B1F  :  EC;
  0B20  :  06;
  0B21  :  F5;
  0B22  :  08;
  0B23  :  F5;
  0B24  :  E8;
  0B25  :  22;
  0B26  :  F7;
  0B27  :  03;
  0B28  :  FD;
  [0B29..0B2A]  :  E7;
  0B2B  :  F4;
  0B2C  :  0F;
  0B2D  :  F9;
  0B2E  :  29;
  0B2F  :  0A;
  0B30  :  F7;
  0B31  :  0A;
  0B32  :  FD;
  0B33  :  05;
  0B34  :  ED;
  0B35  :  F6;
  0B36  :  1C;
  0B37  :  18;
  0B38  :  15;
  0B39  :  03;
  0B3A  :  18;
  0B3B  :  FF;
  0B3C  :  02;
  0B3D  :  EA;
  0B3E  :  FA;
  0B3F  :  F6;
  0B40  :  EB;
  0B41  :  25;
  0B42  :  E2;
  0B43  :  E7;
  0B44  :  E6;
  0B45  :  12;
  0B46  :  FC;
  0B47  :  F4;
  0B48  :  06;
  0B49  :  11;
  0B4A  :  F4;
  0B4B  :  1B;
  0B4C  :  0A;
  0B4D  :  00;
  0B4E  :  E3;
  0B4F  :  1D;
  0B50  :  FA;
  0B51  :  F7;
  0B52  :  F1;
  0B53  :  E4;
  0B54  :  E9;
  0B55  :  14;
  0B56  :  DB;
  0B57  :  04;
  0B58  :  01;
  0B59  :  F4;
  0B5A  :  2E;
  0B5B  :  FA;
  0B5C  :  D4;
  0B5D  :  EF;
  0B5E  :  F0;
  0B5F  :  DA;
  0B60  :  0C;
  0B61  :  1B;
  0B62  :  E7;
  0B63  :  16;
  0B64  :  07;
  0B65  :  20;
  0B66  :  02;
  0B67  :  FA;
  0B68  :  04;
  0B69  :  17;
  0B6A  :  1A;
  0B6B  :  F8;
  0B6C  :  01;
  0B6D  :  1A;
  0B6E  :  25;
  0B6F  :  22;
  0B70  :  09;
  0B71  :  00;
  0B72  :  0E;
  0B73  :  FE;
  0B74  :  F8;
  0B75  :  16;
  0B76  :  17;
  0B77  :  DF;
  0B78  :  0A;
  0B79  :  09;
  0B7A  :  21;
  0B7B  :  E2;
  0B7C  :  EF;
  0B7D  :  01;
  0B7E  :  F1;
  0B7F  :  0F;
  0B80  :  06;
  0B81  :  F5;
  0B82  :  F1;
  0B83  :  02;
  0B84  :  F2;
  0B85  :  18;
  0B86  :  0F;
  0B87  :  FD;
  0B88  :  01;
  0B89  :  FA;
  0B8A  :  12;
  0B8B  :  06;
  0B8C  :  0A;
  0B8D  :  0F;
  0B8E  :  EF;
  0B8F  :  1B;
  0B90  :  EF;
  0B91  :  F8;
  0B92  :  EE;
  0B93  :  1D;
  0B94  :  16;
  0B95  :  07;
  0B96  :  27;
  0B97  :  0B;
  0B98  :  17;
  0B99  :  02;
  0B9A  :  03;
  0B9B  :  EB;
  0B9C  :  0C;
  0B9D  :  0A;
  0B9E  :  F3;
  0B9F  :  DA;
  0BA0  :  15;
  0BA1  :  E4;
  0BA2  :  08;
  0BA3  :  28;
  0BA4  :  F5;
  0BA5  :  FB;
  0BA6  :  04;
  0BA7  :  16;
  0BA8  :  0B;
  0BA9  :  28;
  0BAA  :  E2;
  0BAB  :  FD;
  0BAC  :  13;
  0BAD  :  12;
  0BAE  :  FC;
  0BAF  :  12;
  0BB0  :  FC;
  0BB1  :  07;
  0BB2  :  E4;
  0BB3  :  10;
  0BB4  :  F1;
  0BB5  :  F2;
  0BB6  :  F4;
  0BB7  :  0A;
  0BB8  :  15;
  0BB9  :  22;
  0BBA  :  ED;
  0BBB  :  0E;
  0BBC  :  03;
  0BBD  :  18;
  0BBE  :  12;
  0BBF  :  F1;
  0BC0  :  04;
  0BC1  :  E6;
  0BC2  :  FB;
  0BC3  :  F6;
  0BC4  :  EF;
  0BC5  :  F5;
  0BC6  :  06;
  0BC7  :  FF;
  0BC8  :  09;
  0BC9  :  F7;
  0BCA  :  E8;
  0BCB  :  23;
  0BCC  :  EF;
  0BCD  :  F2;
  0BCE  :  07;
  0BCF  :  F5;
  0BD0  :  E4;
  0BD1  :  F6;
  0BD2  :  10;
  0BD3  :  09;
  0BD4  :  0C;
  0BD5  :  02;
  0BD6  :  ED;
  0BD7  :  03;
  0BD8  :  10;
  0BD9  :  ED;
  0BDA  :  FB;
  [0BDB..0BDC]  :  F7;
  0BDD  :  19;
  0BDE  :  F0;
  0BDF  :  FD;
  0BE0  :  EF;
  0BE1  :  1A;
  0BE2  :  E7;
  0BE3  :  FF;
  0BE4  :  0A;
  0BE5  :  14;
  0BE6  :  0A;
  0BE7  :  FA;
  0BE8  :  09;
  0BE9  :  F4;
  0BEA  :  F2;
  0BEB  :  06;
  0BEC  :  EC;
  0BED  :  F9;
  0BEE  :  17;
  0BEF  :  22;
  0BF0  :  01;
  0BF1  :  EC;
  0BF2  :  E2;
  0BF3  :  11;
  0BF4  :  EF;
  0BF5  :  E5;
  0BF6  :  09;
  0BF7  :  04;
  0BF8  :  06;
  0BF9  :  FB;
  0BFA  :  E9;
  0BFB  :  1D;
  0BFC  :  F3;
  0BFD  :  07;
  0BFE  :  01;
  0BFF  :  11;
  0C00  :  EA;
  0C01  :  01;
  0C02  :  FB;
  0C03  :  18;
  0C04  :  1B;
  0C05  :  DF;
  0C06  :  E7;
  0C07  :  15;
  0C08  :  01;
  0C09  :  14;
  0C0A  :  EE;
  0C0B  :  15;
  0C0C  :  06;
  0C0D  :  02;
  0C0E  :  F3;
  0C0F  :  E9;
  0C10  :  FD;
  0C11  :  F5;
  0C12  :  F2;
  0C13  :  1C;
  0C14  :  FA;
  0C15  :  19;
  0C16  :  E5;
  0C17  :  14;
  0C18  :  1C;
  0C19  :  F6;
  0C1A  :  F3;
  0C1B  :  06;
  0C1C  :  C7;
  0C1D  :  0A;
  0C1E  :  19;
  0C1F  :  F4;
  0C20  :  F0;
  0C21  :  FA;
  0C22  :  05;
  0C23  :  EE;
  0C24  :  FE;
  0C25  :  11;
  0C26  :  0F;
  0C27  :  F6;
  0C28  :  1C;
  0C29  :  F1;
  0C2A  :  F5;
  0C2B  :  23;
  0C2C  :  18;
  0C2D  :  E3;
  0C2E  :  03;
  0C2F  :  F4;
  0C30  :  EB;
  0C31  :  F6;
  0C32  :  EF;
  0C33  :  F1;
  0C34  :  1F;
  0C35  :  1B;
  0C36  :  14;
  0C37  :  D9;
  0C38  :  15;
  0C39  :  18;
  0C3A  :  17;
  0C3B  :  11;
  0C3C  :  18;
  0C3D  :  FD;
  0C3E  :  EB;
  0C3F  :  0A;
  0C40  :  15;
  0C41  :  EE;
  0C42  :  08;
  0C43  :  C5;
  0C44  :  00;
  0C45  :  1C;
  0C46  :  0D;
  0C47  :  2B;
  0C48  :  00;
  0C49  :  FC;
  0C4A  :  3C;
  0C4B  :  26;
  0C4C  :  3E;
  0C4D  :  F7;
  0C4E  :  DE;
  0C4F  :  D3;
  0C50  :  14;
  0C51  :  F4;
  0C52  :  02;
  0C53  :  12;
  0C54  :  2E;
  0C55  :  F8;
  0C56  :  EE;
  0C57  :  FC;
  0C58  :  10;
  0C59  :  E9;
  0C5A  :  E3;
  0C5B  :  EA;
  0C5C  :  DF;
  0C5D  :  06;
  0C5E  :  2B;
  0C5F  :  F8;
  0C60  :  1C;
  0C61  :  0E;
  0C62  :  10;
  [0C63..0C64]  :  F1;
  0C65  :  D1;
  0C66  :  F3;
  0C67  :  EE;
  0C68  :  1F;
  0C69  :  02;
  0C6A  :  2A;
  0C6B  :  27;
  0C6C  :  FD;
  0C6D  :  0A;
  0C6E  :  D3;
  [0C6F..0C70]  :  08;
  0C71  :  ED;
  0C72  :  00;
  0C73  :  0B;
  0C74  :  25;
  0C75  :  28;
  0C76  :  FB;
  0C77  :  1F;
  0C78  :  05;
  0C79  :  D1;
  0C7A  :  0F;
  0C7B  :  C5;
  0C7C  :  33;
  0C7D  :  F2;
  0C7E  :  EE;
  0C7F  :  E2;
  0C80  :  F3;
  0C81  :  18;
  0C82  :  DC;
  0C83  :  28;
  0C84  :  0D;
  0C85  :  01;
  0C86  :  11;
  0C87  :  06;
  0C88  :  F6;
  0C89  :  FC;
  0C8A  :  D7;
  0C8B  :  0B;
  0C8C  :  CC;
  0C8D  :  01;
  0C8E  :  15;
  0C8F  :  05;
  0C90  :  F1;
  0C91  :  07;
  0C92  :  04;
  0C93  :  06;
  0C94  :  CE;
  0C95  :  CC;
  0C96  :  E1;
  0C97  :  F0;
  0C98  :  F1;
  0C99  :  13;
  0C9A  :  FF;
  0C9B  :  39;
  0C9C  :  EA;
  0C9D  :  E0;
  0C9E  :  4D;
  0C9F  :  0B;
  0CA0  :  FD;
  0CA1  :  2B;
  0CA2  :  F4;
  0CA3  :  F3;
  0CA4  :  E8;
  0CA5  :  39;
  0CA6  :  F0;
  0CA7  :  65;
  0CA8  :  EB;
  0CA9  :  C7;
  0CAA  :  EA;
  0CAB  :  EF;
  0CAC  :  F0;
  0CAD  :  0F;
  0CAE  :  29;
  0CAF  :  DF;
  0CB0  :  0A;
  0CB1  :  11;
  0CB2  :  FD;
  0CB3  :  C2;
  0CB4  :  FD;
  0CB5  :  B2;
  0CB6  :  EC;
  0CB7  :  EF;
  0CB8  :  00;
  0CB9  :  EF;
  0CBA  :  27;
  0CBB  :  58;
  0CBC  :  D6;
  0CBD  :  22;
  0CBE  :  EF;
  0CBF  :  E1;
  0CC0  :  01;
  0CC1  :  E8;
  0CC2  :  F1;
  0CC3  :  F8;
  0CC4  :  0E;
  0CC5  :  FD;
  0CC6  :  EB;
  0CC7  :  F4;
  0CC8  :  06;
  0CC9  :  F9;
  0CCA  :  11;
  0CCB  :  15;
  0CCC  :  18;
  0CCD  :  F9;
  0CCE  :  F0;
  0CCF  :  05;
  0CD0  :  F6;
  0CD1  :  F2;
  0CD2  :  11;
  0CD3  :  06;
  0CD4  :  FA;
  0CD5  :  E5;
  0CD6  :  F5;
  0CD7  :  1C;
  0CD8  :  18;
  [0CD9..0CDA]  :  E8;
  0CDB  :  1F;
  0CDC  :  DA;
  0CDD  :  F6;
  0CDE  :  2F;
  0CDF  :  EA;
  0CE0  :  0F;
  0CE1  :  D3;
  0CE2  :  F4;
  0CE3  :  13;
  0CE4  :  F7;
  0CE5  :  23;
  0CE6  :  16;
  0CE7  :  02;
  0CE8  :  E5;
  0CE9  :  E7;
  0CEA  :  F9;
  0CEB  :  EB;
  0CEC  :  D7;
  0CED  :  10;
  0CEE  :  13;
  0CEF  :  09;
  0CF0  :  08;
  0CF1  :  E8;
  0CF2  :  EB;
  0CF3  :  00;
  0CF4  :  03;
  0CF5  :  EA;
  0CF6  :  0F;
  0CF7  :  13;
  0CF8  :  03;
  0CF9  :  D7;
  0CFA  :  22;
  0CFB  :  05;
  0CFC  :  0F;
  0CFD  :  12;
  0CFE  :  0D;
  0CFF  :  FF;
  0D00  :  F1;
  0D01  :  EA;
  0D02  :  0E;
  0D03  :  EE;
  0D04  :  F4;
  0D05  :  F1;
  0D06  :  20;
  0D07  :  38;
  0D08  :  28;
  0D09  :  14;
  0D0A  :  29;
  0D0B  :  25;
  0D0C  :  42;
  0D0D  :  01;
  0D0E  :  DE;
  0D0F  :  CE;
  0D10  :  07;
  0D11  :  06;
  0D12  :  F8;
  0D13  :  F7;
  0D14  :  08;
  0D15  :  03;
  0D16  :  C9;
  0D17  :  03;
  0D18  :  2C;
  0D19  :  06;
  0D1A  :  DC;
  0D1B  :  D0;
  0D1C  :  06;
  0D1D  :  FF;
  0D1E  :  24;
  0D1F  :  1A;
  0D20  :  1D;
  0D21  :  05;
  0D22  :  13;
  0D23  :  F1;
  0D24  :  20;
  0D25  :  EE;
  0D26  :  03;
  0D27  :  F4;
  0D28  :  02;
  0D29  :  F7;
  0D2A  :  05;
  0D2B  :  22;
  0D2C  :  05;
  0D2D  :  21;
  0D2E  :  F3;
  0D2F  :  28;
  0D30  :  18;
  0D31  :  D8;
  0D32  :  F0;
  0D33  :  20;
  0D34  :  08;
  0D35  :  12;
  0D36  :  EA;
  0D37  :  FA;
  0D38  :  CD;
  0D39  :  F3;
  0D3A  :  08;
  0D3B  :  C9;
  0D3C  :  FC;
  0D3D  :  E6;
  0D3E  :  FC;
  0D3F  :  01;
  0D40  :  07;
  0D41  :  0D;
  0D42  :  08;
  0D43  :  30;
  0D44  :  17;
  0D45  :  03;
  0D46  :  EC;
  0D47  :  FB;
  0D48  :  E2;
  0D49  :  DD;
  0D4A  :  09;
  0D4B  :  F6;
  0D4C  :  ED;
  0D4D  :  0A;
  0D4E  :  3A;
  0D4F  :  3C;
  0D50  :  F6;
  0D51  :  0A;
  0D52  :  F2;
  0D53  :  E1;
  0D54  :  B0;
  0D55  :  D9;
  0D56  :  0B;
  0D57  :  10;
  0D58  :  F9;
  0D59  :  04;
  0D5A  :  FE;
  0D5B  :  27;
  0D5C  :  14;
  0D5D  :  F8;
  0D5E  :  5D;
  0D5F  :  E9;
  0D60  :  20;
  0D61  :  51;
  0D62  :  FF;
  0D63  :  0A;
  0D64  :  10;
  0D65  :  22;
  0D66  :  EE;
  0D67  :  7F;
  0D68  :  FF;
  0D69  :  C8;
  0D6A  :  F2;
  0D6B  :  DC;
  0D6C  :  D4;
  0D6D  :  28;
  0D6E  :  44;
  0D6F  :  FD;
  0D70  :  EB;
  0D71  :  0A;
  0D72  :  EA;
  0D73  :  F6;
  0D74  :  14;
  0D75  :  D2;
  0D76  :  08;
  0D77  :  12;
  0D78  :  FA;
  0D79  :  E5;
  0D7A  :  2B;
  0D7B  :  4C;
  0D7C  :  F3;
  0D7D  :  1A;
  0D7E  :  12;
  0D7F  :  EA;
  0D80  :  F0;
  0D81  :  0C;
  0D82  :  00;
  0D83  :  FE;
  0D84  :  F9;
  0D85  :  DE;
  0D86  :  02;
  0D87  :  18;
  0D88  :  E9;
  0D89  :  04;
  0D8A  :  FA;
  0D8B  :  0B;
  0D8C  :  1A;
  0D8D  :  E9;
  0D8E  :  DD;
  0D8F  :  03;
  0D90  :  02;
  [0D91..0D92]  :  11;
  0D93  :  03;
  0D94  :  18;
  0D95  :  01;
  0D96  :  FC;
  0D97  :  03;
  0D98  :  EB;
  0D99  :  FE;
  0D9A  :  F1;
  0D9B  :  20;
  0D9C  :  ED;
  0D9D  :  F9;
  0D9E  :  0A;
  [0D9F..0DA0]  :  EA;
  0DA1  :  E8;
  0DA2  :  E3;
  0DA3  :  06;
  0DA4  :  13;
  0DA5  :  1B;
  0DA6  :  1C;
  0DA7  :  FA;
  0DA8  :  0B;
  0DA9  :  06;
  0DAA  :  EE;
  0DAB  :  13;
  0DAC  :  D2;
  0DAD  :  24;
  0DAE  :  21;
  0DAF  :  E2;
  0DB0  :  14;
  0DB1  :  0D;
  0DB2  :  19;
  0DB3  :  F5;
  0DB4  :  16;
  0DB5  :  EC;
  0DB6  :  F1;
  0DB7  :  EA;
  0DB8  :  1D;
  0DB9  :  03;
  0DBA  :  27;
  0DBB  :  1A;
  0DBC  :  E5;
  0DBD  :  FC;
  0DBE  :  E2;
  0DBF  :  EC;
  0DC0  :  10;
  0DC1  :  DF;
  0DC2  :  0A;
  0DC3  :  C8;
  0DC4  :  D9;
  0DC5  :  01;
  0DC6  :  11;
  0DC7  :  27;
  0DC8  :  12;
  0DC9  :  13;
  0DCA  :  12;
  0DCB  :  23;
  0DCC  :  18;
  0DCD  :  00;
  0DCE  :  E4;
  0DCF  :  DC;
  0DD0  :  EB;
  0DD1  :  20;
  0DD2  :  0E;
  0DD3  :  DF;
  0DD4  :  E9;
  0DD5  :  11;
  0DD6  :  D0;
  0DD7  :  DE;
  0DD8  :  13;
  0DD9  :  DE;
  0DDA  :  CE;
  0DDB  :  02;
  0DDC  :  0F;
  0DDD  :  21;
  0DDE  :  17;
  0DDF  :  D7;
  0DE0  :  EE;
  0DE1  :  16;
  0DE2  :  E6;
  0DE3  :  FB;
  [0DE4..0DE5]  :  F1;
  0DE6  :  DE;
  0DE7  :  E0;
  0DE8  :  F3;
  0DE9  :  05;
  0DEA  :  F0;
  0DEB  :  12;
  0DEC  :  41;
  0DED  :  25;
  0DEE  :  FD;
  0DEF  :  1D;
  0DF0  :  1C;
  0DF1  :  14;
  0DF2  :  E3;
  0DF3  :  03;
  0DF4  :  11;
  0DF5  :  1F;
  0DF6  :  28;
  0DF7  :  E6;
  0DF8  :  EC;
  0DF9  :  02;
  0DFA  :  21;
  0DFB  :  E6;
  0DFC  :  0B;
  0DFD  :  03;
  0DFE  :  02;
  0DFF  :  09;
  0E00  :  00;
  0E01  :  D7;
  0E02  :  03;
  0E03  :  F3;
  0E04  :  F1;
  0E05  :  E9;
  0E06  :  24;
  0E07  :  0F;
  0E08  :  16;
  0E09  :  07;
  [0E0A..0E0B]  :  21;
  0E0C  :  17;
  0E0D  :  FA;
  0E0E  :  CE;
  0E0F  :  EF;
  [0E10..0E11]  :  F5;
  0E12  :  F1;
  0E13  :  F9;
  0E14  :  06;
  0E15  :  00;
  0E16  :  F2;
  0E17  :  FE;
  0E18  :  2A;
  0E19  :  23;
  0E1A  :  F4;
  0E1B  :  D0;
  0E1C  :  F3;
  0E1D  :  16;
  0E1E  :  02;
  0E1F  :  FA;
  0E20  :  14;
  0E21  :  1C;
  0E22  :  19;
  0E23  :  EC;
  0E24  :  10;
  0E25  :  D6;
  0E26  :  FC;
  0E27  :  19;
  0E28  :  04;
  0E29  :  E5;
  0E2A  :  F7;
  0E2B  :  31;
  0E2C  :  24;
  0E2D  :  17;
  0E2E  :  EF;
  0E2F  :  01;
  0E30  :  00;
  0E31  :  E4;
  0E32  :  F0;
  0E33  :  14;
  0E34  :  28;
  0E35  :  FC;
  0E36  :  FA;
  0E37  :  FF;
  0E38  :  DD;
  0E39  :  F7;
  0E3A  :  10;
  0E3B  :  C4;
  0E3C  :  26;
  0E3D  :  C8;
  0E3E  :  02;
  0E3F  :  E7;
  0E40  :  0A;
  0E41  :  39;
  0E42  :  10;
  0E43  :  17;
  0E44  :  06;
  0E45  :  FC;
  0E46  :  D9;
  0E47  :  D0;
  0E48  :  E2;
  0E49  :  02;
  0E4A  :  E8;
  0E4B  :  FF;
  0E4C  :  E8;
  0E4D  :  08;
  0E4E  :  07;
  [0E4F..0E50]  :  FB;
  0E51  :  F2;
  0E52  :  10;
  0E53  :  EA;
  0E54  :  E8;
  0E55  :  F2;
  0E56  :  12;
  0E57  :  D0;
  0E58  :  FE;
  0E59  :  E2;
  0E5A  :  04;
  [0E5B..0E5C]  :  EF;
  0E5D  :  FB;
  0E5E  :  F8;
  0E5F  :  E0;
  0E60  :  F8;
  0E61  :  CC;
  0E62  :  0B;
  0E63  :  EE;
  0E64  :  06;
  0E65  :  19;
  0E66  :  10;
  0E67  :  E1;
  0E68  :  D5;
  0E69  :  FD;
  0E6A  :  02;
  0E6B  :  EC;
  0E6C  :  11;
  0E6D  :  D5;
  0E6E  :  0D;
  0E6F  :  D0;
  0E70  :  1A;
  0E71  :  1D;
  0E72  :  0F;
  0E73  :  EA;
  0E74  :  F3;
  0E75  :  01;
  0E76  :  F4;
  0E77  :  05;
  0E78  :  33;
  0E79  :  38;
  0E7A  :  F2;
  0E7B  :  20;
  0E7C  :  E2;
  0E7D  :  3E;
  0E7E  :  E0;
  0E7F  :  25;
  0E80  :  04;
  0E81  :  28;
  0E82  :  16;
  0E83  :  0E;
  0E84  :  F2;
  0E85  :  E3;
  0E86  :  F5;
  0E87  :  CB;
  0E88  :  EB;
  0E89  :  0F;
  0E8A  :  F9;
  0E8B  :  D7;
  0E8C  :  CA;
  0E8D  :  20;
  0E8E  :  15;
  0E8F  :  04;
  0E90  :  E6;
  0E91  :  21;
  0E92  :  E6;
  0E93  :  11;
  0E94  :  D9;
  0E95  :  E6;
  0E96  :  10;
  0E97  :  FB;
  0E98  :  F8;
  0E99  :  09;
  0E9A  :  26;
  0E9B  :  2D;
  0E9C  :  1F;
  0E9D  :  0A;
  0E9E  :  19;
  0E9F  :  DA;
  0EA0  :  DE;
  0EA1  :  FA;
  0EA2  :  02;
  0EA3  :  FB;
  0EA4  :  F5;
  0EA5  :  32;
  0EA6  :  07;
  0EA7  :  24;
  0EA8  :  DE;
  0EA9  :  0B;
  0EAA  :  DB;
  0EAB  :  D0;
  0EAC  :  D1;
  0EAD  :  F4;
  0EAE  :  1F;
  0EAF  :  FE;
  0EB0  :  E2;
  0EB1  :  23;
  0EB2  :  FB;
  0EB3  :  D6;
  0EB4  :  F6;
  0EB5  :  CE;
  0EB6  :  FD;
  0EB7  :  F4;
  0EB8  :  FB;
  0EB9  :  0D;
  0EBA  :  FC;
  0EBB  :  54;
  0EBC  :  DB;
  0EBD  :  2E;
  0EBE  :  04;
  0EBF  :  2B;
  0EC0  :  0A;
  0EC1  :  10;
  0EC2  :  FA;
  0EC3  :  1A;
  0EC4  :  F4;
  0EC5  :  F2;
  0EC6  :  DE;
  0EC7  :  05;
  0EC8  :  09;
  0EC9  :  E5;
  0ECA  :  FD;
  0ECB  :  F6;
  0ECC  :  E5;
  0ECD  :  17;
  0ECE  :  ED;
  0ECF  :  EE;
  0ED0  :  09;
  0ED1  :  0F;
  0ED2  :  DC;
  0ED3  :  08;
  0ED4  :  03;
  0ED5  :  E0;
  0ED6  :  02;
  0ED7  :  0C;
  0ED8  :  EE;
  0ED9  :  1B;
  [0EDA..0EDB]  :  1D;
  0EDC  :  EF;
  0EDD  :  18;
  0EDE  :  F6;
  0EDF  :  EF;
  0EE0  :  E7;
  0EE1  :  E3;
  0EE2  :  07;
  0EE3  :  0A;
  0EE4  :  E9;
  0EE5  :  12;
  0EE6  :  E7;
  0EE7  :  07;
  0EE8  :  FE;
  0EE9  :  1E;
  0EEA  :  10;
  0EEB  :  FA;
  0EEC  :  FB;
  0EED  :  F3;
  0EEE  :  21;
  0EEF  :  F5;
  0EF0  :  E6;
  0EF1  :  F5;
  0EF2  :  F9;
  0EF3  :  F8;
  0EF4  :  19;
  0EF5  :  EC;
  0EF6  :  FA;
  0EF7  :  09;
  0EF8  :  1E;
  0EF9  :  0A;
  0EFA  :  F9;
  0EFB  :  FB;
  0EFC  :  19;
  0EFD  :  EC;
  0EFE  :  13;
  0EFF  :  1C;
  0F00  :  FC;
  0F01  :  E4;
  0F02  :  F8;
  0F03  :  FF;
  0F04  :  E5;
  0F05  :  08;
  0F06  :  1B;
  0F07  :  0B;
  0F08  :  09;
  0F09  :  E4;
  0F0A  :  FF;
  0F0B  :  F7;
  0F0C  :  03;
  0F0D  :  11;
  0F0E  :  06;
  0F0F  :  E4;
  0F10  :  F8;
  0F11  :  01;
  0F12  :  EF;
  0F13  :  0E;
  0F14  :  18;
  0F15  :  02;
  0F16  :  F7;
  0F17  :  F9;
  0F18  :  E5;
  0F19  :  F7;
  0F1A  :  01;
  0F1B  :  0B;
  0F1C  :  0A;
  0F1D  :  E4;
  0F1E  :  FE;
  0F1F  :  E8;
  0F20  :  ED;
  0F21  :  0F;
  0F22  :  E3;
  0F23  :  00;
  0F24  :  E7;
  0F25  :  1B;
  0F26  :  14;
  0F27  :  F3;
  0F28  :  11;
  0F29  :  12;
  0F2A  :  22;
  0F2B  :  F7;
  0F2C  :  18;
  0F2D  :  1C;
  0F2E  :  25;
  0F2F  :  12;
  0F30  :  02;
  0F31  :  01;
  0F32  :  0C;
  0F33  :  FA;
  0F34  :  07;
  0F35  :  F9;
  0F36  :  13;
  0F37  :  11;
  0F38  :  EA;
  0F39  :  21;
  0F3A  :  05;
  0F3B  :  17;
  0F3C  :  03;
  0F3D  :  F3;
  0F3E  :  0C;
  0F3F  :  00;
  0F40  :  09;
  0F41  :  0C;
  0F42  :  F3;
  0F43  :  F8;
  0F44  :  05;
  0F45  :  EB;
  0F46  :  E2;
  0F47  :  EE;
  0F48  :  D5;
  0F49  :  17;
  0F4A  :  1F;
  0F4B  :  0B;
  0F4C  :  08;
  0F4D  :  EE;
  0F4E  :  04;
  0F4F  :  19;
  0F50  :  14;
  0F51  :  FD;
  0F52  :  07;
  0F53  :  EF;
  0F54  :  1E;
  0F55  :  E8;
  0F56  :  FA;
  0F57  :  14;
  0F58  :  0A;
  0F59  :  F4;
  0F5A  :  2B;
  0F5B  :  F7;
  0F5C  :  E8;
  0F5D  :  EA;
  0F5E  :  F3;
  0F5F  :  FD;
  0F60  :  FC;
  0F61  :  E9;
  0F62  :  E3;
  [0F63..0F64]  :  08;
  0F65  :  20;
  0F66  :  EB;
  0F67  :  FE;
  0F68  :  F8;
  0F69  :  EB;
  0F6A  :  12;
  0F6B  :  14;
  0F6C  :  F4;
  0F6D  :  F0;
  0F6E  :  F6;
  0F6F  :  1A;
  0F70  :  15;
  0F71  :  EE;
  0F72  :  FB;
  0F73  :  09;
  0F74  :  2D;
  0F75  :  11;
  0F76  :  EC;
  0F77  :  D8;
  0F78  :  FE;
  0F79  :  FB;
  0F7A  :  E7;
  0F7B  :  01;
  0F7C  :  E2;
  0F7D  :  0B;
  0F7E  :  F0;
  0F7F  :  E7;
  0F80  :  01;
  0F81  :  FB;
  0F82  :  27;
  0F83  :  EB;
  0F84  :  FA;
  0F85  :  1A;
  0F86  :  DF;
  0F87  :  16;
  0F88  :  E2;
  0F89  :  23;
  0F8A  :  ED;
  0F8B  :  F7;
  0F8C  :  1B;
  0F8D  :  28;
  0F8E  :  DF;
  0F8F  :  F0;
  0F90  :  FD;
  0F91  :  31;
  0F92  :  03;
  0F93  :  0B;
  0F94  :  EB;
  0F95  :  06;
  0F96  :  E9;
  0F97  :  DE;
  0F98  :  24;
  0F99  :  E3;
  0F9A  :  07;
  [0F9B..0F9C]  :  05;
  0F9D  :  1A;
  0F9E  :  07;
  0F9F  :  D8;
  0FA0  :  ED;
  0FA1  :  21;
  0FA2  :  0D;
  0FA3  :  F4;
  [0FA4..0FA5]  :  FB;
  0FA6  :  F7;
  0FA7  :  F2;
  0FA8  :  FF;
  0FA9  :  DE;
  0FAA  :  DF;
  0FAB  :  F4;
  0FAC  :  1A;
  0FAD  :  F4;
  0FAE  :  19;
  0FAF  :  EF;
  0FB0  :  30;
  0FB1  :  22;
  0FB2  :  F7;
  0FB3  :  E1;
  0FB4  :  12;
  0FB5  :  E1;
  0FB6  :  09;
  0FB7  :  FC;
  0FB8  :  0F;
  0FB9  :  22;
  0FBA  :  01;
  0FBB  :  E8;
  0FBC  :  05;
  0FBD  :  02;
  0FBE  :  20;
  0FBF  :  EE;
  0FC0  :  E1;
  0FC1  :  2A;
  0FC2  :  E6;
  0FC3  :  1D;
  0FC4  :  10;
  0FC5  :  18;
  0FC6  :  FB;
  0FC7  :  0A;
  0FC8  :  03;
  0FC9  :  F1;
  0FCA  :  03;
  0FCB  :  1C;
  0FCC  :  06;
  0FCD  :  F6;
  0FCE  :  F0;
  0FCF  :  1B;
  0FD0  :  26;
  0FD1  :  E8;
  0FD2  :  12;
  0FD3  :  1F;
  0FD4  :  0D;
  0FD5  :  FB;
  0FD6  :  13;
  0FD7  :  D9;
  0FD8  :  43;
  0FD9  :  DA;
  0FDA  :  22;
  0FDB  :  38;
  0FDC  :  F0;
  0FDD  :  EA;
  0FDE  :  2C;
  0FDF  :  DE;
  0FE0  :  05;
  0FE1  :  E7;
  0FE2  :  D7;
  0FE3  :  1A;
  0FE4  :  FF;
  0FE5  :  2A;
  0FE6  :  D4;
  0FE7  :  30;
  0FE8  :  16;
  0FE9  :  FD;
  0FEA  :  F7;
  0FEB  :  F6;
  0FEC  :  04;
  0FED  :  FE;
  0FEE  :  2D;
  0FEF  :  D9;
  0FF0  :  06;
  0FF1  :  E8;
  0FF2  :  F6;
  0FF3  :  04;
  0FF4  :  DA;
  0FF5  :  C8;
  0FF6  :  DF;
  0FF7  :  F9;
  0FF8  :  08;
  0FF9  :  C1;
  0FFA  :  13;
  0FFB  :  EB;
  0FFC  :  F6;
  0FFD  :  24;
  0FFE  :  EB;
  0FFF  :  F6;
  1000  :  DC;
  1001  :  E2;
  1002  :  E7;
  1003  :  D0;
  1004  :  05;
  1005  :  EF;
  1006  :  0F;
  1007  :  F4;
  1008  :  01;
  1009  :  F9;
  100A  :  1C;
  100B  :  EE;
  100C  :  1A;
  100D  :  F7;
  100E  :  0B;
  [100F..1010]  :  F9;
  1011  :  DA;
  1012  :  F4;
  1013  :  DF;
  1014  :  21;
  1015  :  10;
  1016  :  D3;
  1017  :  1D;
  1018  :  05;
  1019  :  04;
  101A  :  10;
  101B  :  16;
  101C  :  EF;
  101D  :  FD;
  101E  :  0B;
  101F  :  2C;
  1020  :  07;
  1021  :  B8;
  1022  :  F9;
  1023  :  F2;
  1024  :  FC;
  1025  :  08;
  1026  :  1E;
  1027  :  00;
  1028  :  15;
  1029  :  F8;
  102A  :  14;
  102B  :  15;
  102C  :  DF;
  102D  :  F2;
  102E  :  EF;
  102F  :  1E;
  1030  :  08;
  1031  :  0A;
  1032  :  F1;
  1033  :  F8;
  1034  :  F5;
  1035  :  2C;
  1036  :  05;
  1037  :  F3;
  1038  :  0B;
  1039  :  F7;
  103A  :  F9;
  103B  :  D3;
  103C  :  09;
  103D  :  17;
  103E  :  11;
  103F  :  FE;
  1040  :  17;
  1041  :  E4;
  1042  :  12;
  1043  :  FB;
  1044  :  EC;
  [1045..1046]  :  F6;
  1047  :  E1;
  1048  :  02;
  1049  :  D7;
  104A  :  EB;
  104B  :  1C;
  104C  :  FE;
  104D  :  F2;
  104E  :  1C;
  104F  :  18;
  1050  :  11;
  1051  :  13;
  1052  :  DC;
  1053  :  F6;
  1054  :  07;
  1055  :  1D;
  1056  :  16;
  1057  :  F3;
  1058  :  E7;
  1059  :  FF;
  105A  :  D4;
  105B  :  FB;
  105C  :  F5;
  105D  :  F6;
  105E  :  08;
  105F  :  22;
  1060  :  0A;
  1061  :  10;
  1062  :  01;
  1063  :  DF;
  1064  :  D5;
  1065  :  E8;
  1066  :  0E;
  1067  :  11;
  1068  :  22;
  1069  :  F5;
  106A  :  EE;
  106B  :  21;
  106C  :  ED;
  106D  :  F4;
  106E  :  FA;
  106F  :  09;
  1070  :  D6;
  1071  :  DB;
  1072  :  DA;
  1073  :  12;
  1074  :  E1;
  1075  :  FC;
  1076  :  18;
  1077  :  25;
  1078  :  E6;
  1079  :  F7;
  107A  :  05;
  107B  :  F7;
  107C  :  FD;
  107D  :  F9;
  107E  :  07;
  107F  :  15;
  1080  :  EF;
  1081  :  0E;
  1082  :  EA;
  1083  :  08;
  1084  :  16;
  1085  :  F0;
  1086  :  08;
  1087  :  0C;
  1088  :  EC;
  1089  :  29;
  108A  :  E5;
  108B  :  F5;
  108C  :  E6;
  108D  :  1E;
  108E  :  09;
  108F  :  F9;
  1090  :  01;
  1091  :  F3;
  1092  :  28;
  1093  :  FB;
  1094  :  F1;
  1095  :  0C;
  1096  :  E8;
  1097  :  ED;
  1098  :  04;
  1099  :  26;
  109A  :  0D;
  109B  :  EB;
  109C  :  0D;
  109D  :  16;
  109E  :  EF;
  109F  :  01;
  10A0  :  16;
  10A1  :  F8;
  10A2  :  FE;
  10A3  :  07;
  10A4  :  F7;
  10A5  :  1F;
  10A6  :  EE;
  10A7  :  EC;
  10A8  :  FD;
  10A9  :  F8;
  10AA  :  06;
  10AB  :  E3;
  10AC  :  0C;
  10AD  :  22;
  10AE  :  0F;
  10AF  :  17;
  10B0  :  FB;
  10B1  :  08;
  10B2  :  16;
  10B3  :  FA;
  10B4  :  21;
  10B5  :  EF;
  10B6  :  DA;
  10B7  :  EA;
  10B8  :  EC;
  10B9  :  17;
  10BA  :  F3;
  10BB  :  DA;
  10BC  :  FD;
  10BD  :  0F;
  10BE  :  26;
  10BF  :  03;
  10C0  :  0B;
  10C1  :  15;
  10C2  :  0D;
  10C3  :  E6;
  10C4  :  EF;
  10C5  :  16;
  10C6  :  FC;
  10C7  :  E8;
  10C8  :  F4;
  10C9  :  DC;
  10CA  :  F8;
  10CB  :  07;
  10CC  :  E4;
  10CD  :  0F;
  10CE  :  12;
  10CF  :  05;
  10D0  :  1B;
  10D1  :  F4;
  10D2  :  E8;
  10D3  :  0B;
  10D4  :  1A;
  10D5  :  1C;
  10D6  :  F9;
  10D7  :  13;
  10D8  :  EF;
  10D9  :  0E;
  10DA  :  0A;
  10DB  :  EC;
  10DC  :  F7;
  10DD  :  D1;
  10DE  :  FB;
  10DF  :  06;
  10E0  :  0B;
  10E1  :  22;
  10E2  :  04;
  10E3  :  F3;
  10E4  :  05;
  10E5  :  17;
  10E6  :  EA;
  10E7  :  2D;
  10E8  :  F4;
  10E9  :  14;
  10EA  :  F3;
  10EB  :  EA;
  10EC  :  05;
  10ED  :  07;
  10EE  :  FA;
  10EF  :  E7;
  10F0  :  F8;
  10F1  :  0E;
  10F2  :  E8;
  10F3  :  F6;
  10F4  :  D0;
  10F5  :  E7;
  10F6  :  23;
  10F7  :  21;
  10F8  :  03;
  10F9  :  EE;
  10FA  :  11;
  10FB  :  14;
  10FC  :  16;
  [10FD..10FE]  :  03;
  10FF  :  08;
  1100  :  E7;
  1101  :  16;
  1102  :  FA;
  1103  :  09;
  1104  :  02;
  1105  :  0A;
  1106  :  04;
  1107  :  FA;
  1108  :  DD;
  1109  :  14;
  110A  :  15;
  110B  :  FF;
  110C  :  F4;
  110D  :  13;
  110E  :  E6;
  110F  :  FA;
  1110  :  E7;
  1111  :  D9;
  1112  :  02;
  1113  :  F5;
  1114  :  E2;
  1115  :  F3;
  1116  :  FD;
  1117  :  08;
  1118  :  EF;
  1119  :  1E;
  [111A..111C]  :  FB;
  111D  :  F7;
  111E  :  FF;
  111F  :  02;
  1120  :  14;
  1121  :  F9;
  1122  :  23;
  1123  :  EE;
  1124  :  F4;
  1125  :  E4;
  1126  :  EC;
  1127  :  EF;
  1128  :  FC;
  1129  :  E7;
  112A  :  1D;
  112B  :  18;
  112C  :  E9;
  [112D..112E]  :  E3;
  112F  :  E9;
  1130  :  F5;
  1131  :  0B;
  1132  :  04;
  1133  :  F3;
  1134  :  4D;
  1135  :  0E;
  1136  :  0D;
  1137  :  E0;
  1138  :  FE;
  1139  :  0C;
  113A  :  E6;
  113B  :  CD;
  113C  :  0B;
  113D  :  09;
  113E  :  07;
  113F  :  FE;
  1140  :  FC;
  1141  :  E1;
  1142  :  EA;
  1143  :  ED;
  1144  :  E7;
  1145  :  10;
  1146  :  0B;
  1147  :  0D;
  1148  :  FD;
  1149  :  E8;
  114A  :  ED;
  114B  :  E3;
  114C  :  E9;
  114D  :  07;
  114E  :  16;
  114F  :  01;
  1150  :  05;
  1151  :  30;
  1152  :  DA;
  1153  :  DD;
  1154  :  ED;
  1155  :  0E;
  1156  :  1D;
  1157  :  FC;
  1158  :  FF;
  1159  :  07;
  115A  :  E6;
  115B  :  01;
  115C  :  02;
  115D  :  0B;
  115E  :  F3;
  115F  :  1D;
  1160  :  01;
  1161  :  25;
  1162  :  F8;
  1163  :  06;
  1164  :  0C;
  1165  :  11;
  1166  :  0C;
  1167  :  FC;
  1168  :  07;
  1169  :  D7;
  116A  :  F6;
  116B  :  FB;
  116C  :  F4;
  116D  :  05;
  116E  :  14;
  116F  :  ED;
  1170  :  01;
  1171  :  F8;
  1172  :  F1;
  1173  :  E4;
  1174  :  14;
  1175  :  0C;
  1176  :  16;
  1177  :  28;
  1178  :  E9;
  1179  :  F4;
  117A  :  0D;
  117B  :  0A;
  117C  :  F7;
  117D  :  F0;
  117E  :  FA;
  117F  :  04;
  1180  :  EB;
  1181  :  00;
  1182  :  11;
  1183  :  02;
  1184  :  EF;
  1185  :  1B;
  1186  :  DE;
  1187  :  F9;
  1188  :  09;
  1189  :  16;
  118A  :  F3;
  118B  :  12;
  118C  :  06;
  118D  :  1E;
  118E  :  03;
  118F  :  09;
  1190  :  F9;
  1191  :  D8;
  1192  :  FF;
  1193  :  11;
  1194  :  0B;
  1195  :  01;
  1196  :  F1;
  1197  :  D5;
  1198  :  19;
  1199  :  00;
  119A  :  16;
  119B  :  E0;
  119C  :  FC;
  119D  :  2E;
  119E  :  E9;
  119F  :  F3;
  11A0  :  DB;
  11A1  :  F3;
  11A2  :  07;
  11A3  :  F8;
  11A4  :  0A;
  11A5  :  1B;
  11A6  :  F7;
  11A7  :  D0;
  11A8  :  1A;
  11A9  :  14;
  11AA  :  1B;
  11AB  :  0C;
  11AC  :  19;
  11AD  :  FA;
  11AE  :  1D;
  11AF  :  14;
  11B0  :  0F;
  11B1  :  EE;
  11B2  :  EB;
  11B3  :  F1;
  11B4  :  F7;
  11B5  :  FD;
  11B6  :  07;
  11B7  :  FB;
  11B8  :  FE;
  11B9  :  0A;
  11BA  :  E7;
  11BB  :  DE;
  11BC  :  ED;
  11BD  :  09;
  11BE  :  FA;
  11BF  :  F1;
  11C0  :  F8;
  11C1  :  11;
  11C2  :  D4;
  11C3  :  0C;
  11C4  :  0A;
  11C5  :  05;
  11C6  :  1F;
  11C7  :  E1;
  11C8  :  F3;
  11C9  :  05;
  11CA  :  FD;
  11CB  :  FB;
  11CC  :  0B;
  11CD  :  FE;
  11CE  :  26;
  11CF  :  1B;
  11D0  :  13;
  11D1  :  00;
  11D2  :  09;
  11D3  :  CF;
  11D4  :  F0;
  11D5  :  1C;
  11D6  :  F8;
  11D7  :  FD;
  11D8  :  CE;
  11D9  :  09;
  11DA  :  F9;
  11DB  :  09;
  [11DC..11DD]  :  FC;
  11DE  :  0F;
  11DF  :  00;
  11E0  :  08;
  11E1  :  FF;
  11E2  :  19;
  11E3  :  0B;
  11E4  :  12;
  11E5  :  EF;
  11E6  :  08;
  11E7  :  1D;
  11E8  :  09;
  11E9  :  13;
  11EA  :  F9;
  11EB  :  E6;
  11EC  :  05;
  11ED  :  0C;
  11EE  :  F4;
  [11EF..11F0]  :  F5;
  11F1  :  F4;
  11F2  :  00;
  11F3  :  0A;
  11F4  :  0B;
  11F5  :  EB;
  11F6  :  F5;
  11F7  :  FD;
  11F8  :  EE;
  11F9  :  0F;
  11FA  :  15;
  11FB  :  FE;
  11FC  :  11;
  11FD  :  10;
  11FE  :  09;
  11FF  :  F1;
  1200  :  1F;
  1201  :  FA;
  1202  :  06;
  1203  :  E1;
  1204  :  FF;
  1205  :  F6;
  1206  :  EC;
  1207  :  F7;
  1208  :  0B;
  1209  :  29;
  120A  :  F3;
  120B  :  21;
  120C  :  12;
  120D  :  1E;
  120E  :  DF;
  120F  :  0F;
  1210  :  15;
  1211  :  05;
  1212  :  04;
  1213  :  15;
  1214  :  02;
  1215  :  F9;
  1216  :  DE;
  1217  :  E5;
  1218  :  30;
  1219  :  22;
  121A  :  F1;
  121B  :  21;
  121C  :  E8;
  121D  :  1F;
  121E  :  14;
  121F  :  07;
  1220  :  0B;
  1221  :  E9;
  1222  :  1A;
  1223  :  E7;
  [1224..1225]  :  15;
  1226  :  13;
  1227  :  EA;
  1228  :  17;
  1229  :  F0;
  122A  :  E3;
  122B  :  0E;
  122C  :  03;
  122D  :  1A;
  122E  :  0C;
  122F  :  E3;
  1230  :  20;
  1231  :  03;
  1232  :  EA;
  1233  :  07;
  1234  :  03;
  1235  :  07;
  1236  :  03;
  1237  :  09;
  1238  :  11;
  1239  :  0E;
  123A  :  F0;
  123B  :  12;
  123C  :  04;
  123D  :  14;
  123E  :  04;
  123F  :  10;
  1240  :  07;
  1241  :  E9;
  1242  :  F4;
  1243  :  1A;
  1244  :  EF;
  1245  :  15;
  1246  :  0B;
  1247  :  09;
  1248  :  F5;
  1249  :  E9;
  124A  :  11;
  124B  :  E9;
  124C  :  07;
  124D  :  F7;
  124E  :  F4;
  124F  :  E6;
  1250  :  FF;
  1251  :  26;
  1252  :  F7;
  1253  :  EB;
  1254  :  F5;
  [1255..1256]  :  04;
  1257  :  1C;
  1258  :  F4;
  1259  :  F6;
  125A  :  ED;
  125B  :  1A;
  125C  :  E8;
  125D  :  DA;
  125E  :  07;
  125F  :  0B;
  1260  :  FA;
  1261  :  00;
  1262  :  09;
  1263  :  EE;
  1264  :  0F;
  1265  :  06;
  1266  :  F5;
  1267  :  F7;
  1268  :  E8;
  1269  :  0C;
  126A  :  F9;
  126B  :  EC;
  126C  :  F9;
  126D  :  19;
  126E  :  EF;
  126F  :  16;
  1270  :  F4;
  [1271..1272]  :  ED;
  1273  :  FD;
  1274  :  ED;
  1275  :  DF;
  1276  :  0C;
  1277  :  17;
  1278  :  12;
  1279  :  DE;
  127A  :  E0;
  127B  :  E8;
  127C  :  08;
  127D  :  21;
  127E  :  F7;
  127F  :  ED;
  1280  :  0A;
  1281  :  F7;
  1282  :  00;
  1283  :  05;
  1284  :  01;
  1285  :  EF;
  1286  :  E4;
  1287  :  1E;
  1288  :  EE;
  1289  :  ED;
  128A  :  F7;
  128B  :  F0;
  128C  :  02;
  128D  :  14;
  128E  :  EC;
  128F  :  FA;
  1290  :  11;
  1291  :  F6;
  1292  :  16;
  1293  :  23;
  1294  :  E2;
  1295  :  0C;
  1296  :  F6;
  1297  :  19;
  1298  :  0C;
  1299  :  27;
  129A  :  0A;
  129B  :  F6;
  129C  :  0C;
  129D  :  2A;
  129E  :  1A;
  129F  :  E3;
  12A0  :  0E;
  12A1  :  F3;
  12A2  :  EB;
  12A3  :  F8;
  12A4  :  F4;
  12A5  :  17;
  12A6  :  FC;
  12A7  :  1C;
  12A8  :  EA;
  12A9  :  F6;
  12AA  :  F7;
  12AB  :  F8;
  12AC  :  F2;
  12AD  :  F4;
  12AE  :  11;
  12AF  :  F6;
  12B0  :  FD;
  12B1  :  F1;
  12B2  :  18;
  12B3  :  15;
  12B4  :  FF;
  12B5  :  F8;
  12B6  :  F7;
  12B7  :  1A;
  12B8  :  E1;
  12B9  :  03;
  12BA  :  FE;
  12BB  :  F4;
  12BC  :  F0;
  12BD  :  0B;
  12BE  :  EE;
  12BF  :  03;
  12C0  :  DC;
  12C1  :  E6;
  12C2  :  10;
  12C3  :  EE;
  12C4  :  22;
  12C5  :  FB;
  12C6  :  E6;
  12C7  :  1C;
  12C8  :  F2;
  12C9  :  0E;
  12CA  :  E3;
  12CB  :  09;
  12CC  :  DC;
  12CD  :  00;
  12CE  :  1A;
  12CF  :  1C;
  12D0  :  10;
  12D1  :  1E;
  12D2  :  19;
  12D3  :  E0;
  12D4  :  F5;
  12D5  :  FA;
  12D6  :  01;
  12D7  :  FF;
  12D8  :  F5;
  12D9  :  E2;
  12DA  :  14;
  12DB  :  E6;
  12DC  :  EB;
  12DD  :  F4;
  12DE  :  0C;
  12DF  :  13;
  12E0  :  07;
  12E1  :  EF;
  12E2  :  FA;
  12E3  :  EB;
  12E4  :  F5;
  12E5  :  F6;
  12E6  :  DE;
  12E7  :  E9;
  12E8  :  15;
  12E9  :  1C;
  12EA  :  F1;
  12EB  :  DD;
  12EC  :  E1;
  12ED  :  F2;
  12EE  :  0D;
  12EF  :  E9;
  12F0  :  0F;
  12F1  :  EF;
  12F2  :  1D;
  12F3  :  FE;
  12F4  :  15;
  12F5  :  F5;
  12F6  :  F8;
  12F7  :  EE;
  12F8  :  F0;
  12F9  :  0B;
  12FA  :  0F;
  12FB  :  17;
  12FC  :  05;
  12FD  :  18;
  12FE  :  E2;
  12FF  :  FC;
  1300  :  04;
  1301  :  09;
  1302  :  01;
  1303  :  EA;
  1304  :  F5;
  1305  :  1B;
  1306  :  FA;
  1307  :  EA;
  1308  :  ED;
  1309  :  F8;
  130A  :  FC;
  130B  :  15;
  [130C..130D]  :  0C;
  130E  :  EF;
  130F  :  14;
  1310  :  F9;
  1311  :  F3;
  1312  :  0F;
  1313  :  FB;
  1314  :  E4;
  1315  :  0F;
  1316  :  EE;
  1317  :  05;
  1318  :  F1;
  1319  :  14;
  131A  :  EA;
  131B  :  EC;
  131C  :  11;
  131D  :  FD;
  131E  :  00;
  131F  :  E2;
  1320  :  ED;
  1321  :  F1;
  1322  :  F0;
  1323  :  14;
  1324  :  E6;
  1325  :  05;
  1326  :  EF;
  1327  :  FE;
  1328  :  1F;
  1329  :  EA;
  132A  :  22;
  132B  :  F4;
  132C  :  19;
  132D  :  0C;
  132E  :  26;
  132F  :  03;
  1330  :  02;
  1331  :  E7;
  1332  :  EB;
  1333  :  12;
  1334  :  EE;
  1335  :  F9;
  1336  :  21;
  1337  :  F6;
  1338  :  16;
  1339  :  1E;
  133A  :  11;
  133B  :  18;
  133C  :  E6;
  133D  :  ED;
  133E  :  01;
  133F  :  E9;
  1340  :  19;
  1341  :  14;
  1342  :  FB;
  1343  :  FA;
  1344  :  0F;
  1345  :  06;
  1346  :  FE;
  1347  :  FC;
  1348  :  19;
  1349  :  0B;
  134A  :  0C;
  134B  :  0A;
  134C  :  F1;
  134D  :  FC;
  134E  :  0E;
  134F  :  06;
  1350  :  04;
  1351  :  10;
  1352  :  07;
  1353  :  22;
  1354  :  0B;
  1355  :  09;
  1356  :  00;
  1357  :  DE;
  1358  :  E4;
  1359  :  08;
  135A  :  ED;
  135B  :  05;
  135C  :  D7;
  135D  :  12;
  135E  :  E4;
  135F  :  0E;
  1360  :  02;
  1361  :  ED;
  1362  :  FA;
  1363  :  0D;
  1364  :  01;
  1365  :  E4;
  1366  :  36;
  1367  :  DD;
  1368  :  0A;
  [1369..136A]  :  FE;
  136B  :  19;
  136C  :  F1;
  136D  :  0C;
  136E  :  E6;
  136F  :  03;
  1370  :  EC;
  1371  :  08;
  1372  :  DC;
  1373  :  EC;
  1374  :  18;
  1375  :  F5;
  1376  :  13;
  1377  :  15;
  1378  :  13;
  1379  :  FC;
  137A  :  11;
  137B  :  08;
  137C  :  06;
  137D  :  13;
  137E  :  20;
  137F  :  03;
  1380  :  07;
  1381  :  18;
  1382  :  F6;
  1383  :  3B;
  1384  :  DE;
  1385  :  04;
  1386  :  13;
  1387  :  F1;
  1388  :  F8;
  1389  :  06;
  138A  :  18;
  138B  :  EF;
  138C  :  15;
  138D  :  E6;
  138E  :  1C;
  138F  :  2A;
  1390  :  F1;
  1391  :  EF;
  1392  :  EB;
  1393  :  26;
  1394  :  0B;
  1395  :  05;
  1396  :  F8;
  1397  :  E0;
  1398  :  DA;
  1399  :  FF;
  139A  :  F8;
  139B  :  0F;
  139C  :  27;
  139D  :  03;
  139E  :  11;
  139F  :  02;
  13A0  :  0D;
  13A1  :  0F;
  13A2  :  ED;
  13A3  :  D8;
  13A4  :  0F;
  13A5  :  EA;
  13A6  :  C6;
  13A7  :  F9;
  13A8  :  0F;
  13A9  :  16;
  [13AA..13AB]  :  EE;
  13AC  :  29;
  13AD  :  0C;
  13AE  :  0F;
  13AF  :  14;
  13B0  :  10;
  13B1  :  01;
  13B2  :  E7;
  13B3  :  15;
  13B4  :  08;
  13B5  :  F9;
  13B6  :  FC;
  13B7  :  FE;
  13B8  :  F9;
  13B9  :  1D;
  13BA  :  DC;
  13BB  :  17;
  13BC  :  F0;
  13BD  :  EF;
  13BE  :  FB;
  13BF  :  17;
  13C0  :  EF;
  13C1  :  E7;
  13C2  :  02;
  13C3  :  E1;
  13C4  :  25;
  13C5  :  16;
  13C6  :  05;
  13C7  :  0D;
  13C8  :  0B;
  13C9  :  E2;
  13CA  :  FA;
  13CB  :  03;
  13CC  :  08;
  13CD  :  E7;
  13CE  :  02;
  13CF  :  FD;
  13D0  :  07;
  13D1  :  DC;
  13D2  :  1E;
  13D3  :  FB;
  13D4  :  FF;
  13D5  :  F5;
  13D6  :  05;
  13D7  :  04;
  13D8  :  FA;
  13D9  :  F1;
  13DA  :  13;
  13DB  :  F2;
  13DC  :  C6;
  13DD  :  FD;
  13DE  :  19;
  13DF  :  E6;
  13E0  :  00;
  13E1  :  0A;
  13E2  :  E2;
  13E3  :  EB;
  13E4  :  18;
  13E5  :  DF;
  13E6  :  EA;
  13E7  :  19;
  13E8  :  10;
  13E9  :  E6;
  13EA  :  11;
  13EB  :  F3;
  13EC  :  E0;
  13ED  :  17;
  13EE  :  FB;
  13EF  :  02;
  13F0  :  F9;
  13F1  :  E2;
  13F2  :  02;
  13F3  :  E9;
  13F4  :  07;
  13F5  :  28;
  13F6  :  20;
  13F7  :  17;
  13F8  :  FC;
  13F9  :  05;
  13FA  :  0C;
  13FB  :  E9;
  13FC  :  06;
  13FD  :  F0;
  13FE  :  10;
  13FF  :  DC;
  1400  :  EE;
  1401  :  18;
  1402  :  DE;
  1403  :  03;
  1404  :  21;
  1405  :  03;
  1406  :  05;
  1407  :  FA;
  1408  :  F3;
  1409  :  14;
  140A  :  FC;
  140B  :  01;
  140C  :  EA;
  140D  :  E5;
  140E  :  1A;
  140F  :  F9;
  1410  :  01;
  1411  :  ED;
  1412  :  0E;
  1413  :  14;
  1414  :  05;
  1415  :  E7;
  1416  :  00;
  1417  :  13;
  1418  :  F8;
  1419  :  18;
  141A  :  11;
  141B  :  1E;
  141C  :  05;
  141D  :  E4;
  141E  :  F5;
  141F  :  F0;
  1420  :  19;
  1421  :  08;
  1422  :  0C;
  1423  :  FB;
  1424  :  ED;
  1425  :  19;
  1426  :  0E;
  1427  :  F3;
  1428  :  01;
  1429  :  ED;
  142A  :  FB;
  142B  :  04;
  142C  :  E5;
  142D  :  22;
  142E  :  F0;
  142F  :  EA;
  1430  :  F1;
  1431  :  16;
  1432  :  FE;
  1433  :  FD;
  1434  :  E4;
  1435  :  EB;
  1436  :  F5;
  1437  :  11;
  1438  :  17;
  1439  :  EB;
  143A  :  06;
  143B  :  23;
  143C  :  FF;
  143D  :  12;
  143E  :  EA;
  143F  :  1C;
  1440  :  16;
  1441  :  20;
  1442  :  0C;
  1443  :  02;
  1444  :  16;
  1445  :  F0;
  1446  :  F4;
  1447  :  01;
  1448  :  15;
  1449  :  1A;
  144A  :  E6;
  144B  :  06;
  144C  :  01;
  144D  :  E5;
  144E  :  F6;
  144F  :  F1;
  1450  :  F5;
  1451  :  1F;
  1452  :  02;
  1453  :  06;
  1454  :  21;
  1455  :  FD;
  1456  :  1D;
  1457  :  F8;
  1458  :  11;
  1459  :  E5;
  145A  :  11;
  145B  :  EB;
  145C  :  FC;
  145D  :  11;
  145E  :  E9;
  145F  :  07;
  1460  :  FE;
  1461  :  0A;
  1462  :  EF;
  1463  :  E5;
  1464  :  F3;
  1465  :  08;
  1466  :  E6;
  1467  :  F7;
  1468  :  00;
  1469  :  F2;
  146A  :  00;
  146B  :  0A;
  146C  :  F1;
  146D  :  FA;
  146E  :  08;
  146F  :  F0;
  1470  :  06;
  1471  :  FB;
  1472  :  FD;
  1473  :  E1;
  1474  :  0A;
  1475  :  08;
  1476  :  E9;
  1477  :  01;
  1478  :  20;
  1479  :  FA;
  147A  :  EE;
  147B  :  20;
  147C  :  06;
  147D  :  10;
  147E  :  0F;
  147F  :  25;
  1480  :  06;
  1481  :  0E;
  1482  :  FB;
  1483  :  1A;
  1484  :  0B;
  1485  :  EA;
  1486  :  12;
  1487  :  06;
  1488  :  DF;
  1489  :  08;
  148A  :  F6;
  148B  :  16;
  148C  :  E8;
  148D  :  1A;
  148E  :  FF;
  148F  :  EE;
  1490  :  12;
  1491  :  05;
  1492  :  F5;
  1493  :  01;
  1494  :  13;
  1495  :  E7;
  1496  :  D3;
  1497  :  E2;
  1498  :  FA;
  1499  :  15;
  149A  :  F8;
  149B  :  00;
  149C  :  E2;
  149D  :  04;
  149E  :  19;
  149F  :  F1;
  14A0  :  15;
  14A1  :  FC;
  14A2  :  E4;
  14A3  :  1D;
  14A4  :  FD;
  14A5  :  20;
  14A6  :  1E;
  14A7  :  E4;
  14A8  :  D8;
  14A9  :  FD;
  14AA  :  F8;
  14AB  :  DF;
  14AC  :  EC;
  14AD  :  E6;
  14AE  :  1D;
  14AF  :  E1;
  14B0  :  FF;
  14B1  :  0E;
  14B2  :  F8;
  14B3  :  D8;
  14B4  :  0A;
  14B5  :  DC;
  14B6  :  1D;
  14B7  :  13;
  14B8  :  FF;
  14B9  :  03;
  14BA  :  FA;
  14BB  :  07;
  14BC  :  0E;
  14BD  :  2D;
  14BE  :  F2;
  14BF  :  12;
  14C0  :  1D;
  14C1  :  14;
  14C2  :  06;
  14C3  :  04;
  14C4  :  F7;
  14C5  :  21;
  14C6  :  F0;
  14C7  :  02;
  14C8  :  F9;
  14C9  :  F8;
  14CA  :  F6;
  14CB  :  18;
  14CC  :  E7;
  14CD  :  09;
  14CE  :  EB;
  14CF  :  E7;
  14D0  :  00;
  14D1  :  01;
  14D2  :  F7;
  14D3  :  F8;
  14D4  :  E3;
  14D5  :  F4;
  14D6  :  18;
  14D7  :  1E;
  14D8  :  F8;
  14D9  :  08;
  14DA  :  1A;
  14DB  :  DF;
  14DC  :  17;
  14DD  :  21;
  14DE  :  E5;
  14DF  :  F0;
  14E0  :  1F;
  14E1  :  01;
  14E2  :  EA;
  14E3  :  F4;
  14E4  :  03;
  14E5  :  06;
  14E6  :  0D;
  14E7  :  20;
  14E8  :  EF;
  14E9  :  00;
  14EA  :  FA;
  14EB  :  F5;
  14EC  :  EA;
  14ED  :  16;
  14EE  :  0C;
  14EF  :  FD;
  14F0  :  09;
  14F1  :  EA;
  [14F2..14F3]  :  0A;
  14F4  :  01;
  14F5  :  1E;
  14F6  :  0B;
  14F7  :  FB;
  14F8  :  0E;
  14F9  :  EE;
  14FA  :  F2;
  14FB  :  F4;
  14FC  :  FA;
  14FD  :  0F;
  14FE  :  06;
  14FF  :  0E;
  1500  :  0B;
  1501  :  EE;
  1502  :  1A;
  1503  :  F1;
  1504  :  EE;
  1505  :  03;
  1506  :  FA;
  1507  :  DF;
  1508  :  11;
  1509  :  04;
  150A  :  F6;
  150B  :  17;
  150C  :  FF;
  150D  :  16;
  150E  :  EE;
  150F  :  02;
  1510  :  1F;
  1511  :  06;
  1512  :  0E;
  1513  :  F9;
  1514  :  E4;
  1515  :  FE;
  1516  :  F9;
  1517  :  1A;
  1518  :  ED;
  1519  :  20;
  151A  :  18;
  151B  :  EC;
  151C  :  F9;
  151D  :  1B;
  151E  :  19;
  151F  :  03;
  1520  :  FA;
  1521  :  01;
  1522  :  11;
  1523  :  F1;
  1524  :  12;
  1525  :  E0;
  1526  :  E2;
  1527  :  FA;
  [1528..1529]  :  F4;
  152A  :  F9;
  152B  :  F0;
  152C  :  F2;
  152D  :  ED;
  152E  :  14;
  152F  :  F9;
  1530  :  F8;
  1531  :  FF;
  1532  :  24;
  1533  :  EF;
  1534  :  07;
  [1535..1536]  :  0F;
  1537  :  ED;
  1538  :  08;
  1539  :  E4;
  153A  :  FE;
  153B  :  0E;
  153C  :  ED;
  153D  :  13;
  153E  :  E6;
  153F  :  11;
  1540  :  FF;
  [1541..1542]  :  E9;
  1543  :  1C;
  [1544..1545]  :  EB;
  1546  :  00;
  1547  :  05;
  1548  :  0A;
  1549  :  EB;
  154A  :  ED;
  154B  :  EC;
  154C  :  E5;
  154D  :  FB;
  154E  :  10;
  154F  :  EE;
  1550  :  FD;
  1551  :  FA;
  1552  :  1F;
  1553  :  1B;
  1554  :  0C;
  1555  :  F0;
  1556  :  E6;
  1557  :  FA;
  1558  :  EF;
  1559  :  04;
  155A  :  13;
  155B  :  16;
  155C  :  15;
  155D  :  F8;
  155E  :  0C;
  155F  :  FD;
  1560  :  EB;
  1561  :  0D;
  1562  :  E6;
  1563  :  FF;
  1564  :  F9;
  1565  :  0A;
  1566  :  0E;
  1567  :  F2;
  1568  :  0F;
  1569  :  F0;
  156A  :  F3;
  156B  :  06;
  156C  :  09;
  156D  :  18;
  156E  :  EA;
  156F  :  06;
  1570  :  02;
  1571  :  14;
  1572  :  F2;
  1573  :  0C;
  1574  :  04;
  1575  :  F3;
  1576  :  01;
  1577  :  FC;
  1578  :  02;
  1579  :  12;
  157A  :  FF;
  157B  :  08;
  157C  :  FD;
  157D  :  E6;
  157E  :  F2;
  157F  :  FB;
  1580  :  F8;
  1581  :  E4;
  1582  :  07;
  1583  :  FB;
  1584  :  F5;
  1585  :  04;
  1586  :  EF;
  1587  :  17;
  1588  :  1D;
  1589  :  13;
  158A  :  E4;
  158B  :  0B;
  [158C..158D]  :  14;
  158E  :  EC;
  158F  :  05;
  1590  :  18;
  1591  :  05;
  1592  :  0E;
  1593  :  01;
  1594  :  FD;
  1595  :  E4;
  1596  :  05;
  1597  :  E9;
  1598  :  FE;
  1599  :  F6;
  159A  :  02;
  159B  :  E7;
  159C  :  0F;
  159D  :  19;
  159E  :  E9;
  159F  :  EC;
  15A0  :  ED;
  15A1  :  16;
  15A2  :  09;
  15A3  :  FF;
  15A4  :  EE;
  15A5  :  04;
  15A6  :  14;
  15A7  :  15;
  15A8  :  04;
  15A9  :  E4;
  15AA  :  E0;
  15AB  :  DF;
  15AC  :  F1;
  15AD  :  E3;
  15AE  :  E8;
  15AF  :  F6;
  15B0  :  1E;
  15B1  :  01;
  15B2  :  1B;
  15B3  :  0B;
  15B4  :  E8;
  15B5  :  0D;
  15B6  :  F8;
  15B7  :  0B;
  15B8  :  F4;
  15B9  :  20;
  15BA  :  EA;
  15BB  :  F0;
  15BC  :  18;
  15BD  :  E2;
  15BE  :  12;
  15BF  :  0A;
  15C0  :  1D;
  15C1  :  14;
  15C2  :  26;
  15C3  :  E5;
  15C4  :  10;
  15C5  :  0E;
  15C6  :  10;
  15C7  :  E6;
  15C8  :  12;
  15C9  :  22;
  15CA  :  13;
  15CB  :  F7;
  15CC  :  E0;
  15CD  :  F7;
  15CE  :  16;
  15CF  :  0A;
  15D0  :  07;
  15D1  :  E6;
  15D2  :  FC;
  15D3  :  02;
  15D4  :  16;
  15D5  :  09;
  15D6  :  F5;
  15D7  :  04;
  15D8  :  E3;
  15D9  :  20;
  15DA  :  F1;
  [15DB..15DC]  :  FA;
  15DD  :  10;
  15DE  :  07;
  15DF  :  13;
  [15E0..15E1]  :  F5;
  15E2  :  F0;
  15E3  :  07;
  15E4  :  E8;
  15E5  :  00;
  15E6  :  12;
  15E7  :  18;
  15E8  :  FA;
  15E9  :  FD;
  15EA  :  DF;
  15EB  :  05;
  15EC  :  1B;
  15ED  :  E9;
  15EE  :  F2;
  [15EF..15F0]  :  13;
  15F1  :  EB;
  15F2  :  09;
  15F3  :  EC;
  15F4  :  E2;
  15F5  :  1B;
  15F6  :  1E;
  15F7  :  16;
  15F8  :  E2;
  15F9  :  16;
  15FA  :  F5;
  15FB  :  F6;
  15FC  :  01;
  15FD  :  E5;
  15FE  :  12;
  15FF  :  01;
  1600  :  EF;
  1601  :  E7;
  1602  :  ED;
  1603  :  E5;
  1604  :  09;
  1605  :  13;
  1606  :  EC;
  1607  :  E3;
  1608  :  0C;
  1609  :  15;
  160A  :  EF;
  160B  :  F2;
  160C  :  FB;
  160D  :  F2;
  160E  :  E6;
  160F  :  0E;
  1610  :  0D;
  1611  :  07;
  1612  :  10;
  1613  :  0A;
  1614  :  E7;
  1615  :  F6;
  1616  :  EA;
  1617  :  EF;
  1618  :  08;
  1619  :  19;
  161A  :  1D;
  161B  :  08;
  161C  :  ED;
  161D  :  E9;
  161E  :  14;
  [161F..1620]  :  0D;
  1621  :  13;
  1622  :  11;
  1623  :  18;
  1624  :  E8;
  1625  :  0E;
  1626  :  13;
  1627  :  F1;
  1628  :  04;
  1629  :  F0;
  162A  :  12;
  162B  :  DC;
  162C  :  03;
  162D  :  E7;
  162E  :  08;
  162F  :  E8;
  1630  :  EB;
  1631  :  FB;
  1632  :  20;
  1633  :  EB;
  1634  :  E9;
  1635  :  0F;
  1636  :  03;
  1637  :  20;
  1638  :  E8;
  1639  :  05;
  163A  :  EA;
  163B  :  EC;
  163C  :  06;
  163D  :  07;
  163E  :  12;
  163F  :  F0;
  1640  :  E7;
  1641  :  F2;
  1642  :  09;
  1643  :  00;
  1644  :  08;
  1645  :  E3;
  1646  :  12;
  1647  :  EF;
  1648  :  17;
  1649  :  E9;
  164A  :  13;
  164B  :  E2;
  164C  :  08;
  164D  :  22;
  164E  :  F5;
  164F  :  15;
  1650  :  F4;
  1651  :  19;
  1652  :  16;
  1653  :  E2;
  1654  :  EA;
  1655  :  F6;
  1656  :  DE;
  1657  :  F9;
  1658  :  E4;
  1659  :  02;
  165A  :  29;
  165B  :  E7;
  165C  :  F4;
  165D  :  FC;
  165E  :  EA;
  165F  :  F7;
  1660  :  FA;
  1661  :  13;
  1662  :  1B;
  1663  :  11;
  1664  :  10;
  1665  :  FC;
  1666  :  15;
  1667  :  09;
  1668  :  04;
  1669  :  F1;
  166A  :  DD;
  166B  :  F9;
  166C  :  FA;
  166D  :  FC;
  166E  :  0B;
  166F  :  1B;
  1670  :  F4;
  1671  :  07;
  1672  :  1A;
  1673  :  1B;
  1674  :  36;
  1675  :  0D;
  1676  :  D8;
  1677  :  11;
  1678  :  E7;
  1679  :  08;
  167A  :  11;
  167B  :  F2;
  167C  :  06;
  167D  :  FA;
  167E  :  05;
  167F  :  F1;
  1680  :  09;
  1681  :  13;
  1682  :  14;
  1683  :  EE;
  1684  :  24;
  1685  :  03;
  1686  :  FB;
  1687  :  E5;
  1688  :  F6;
  1689  :  15;
  168A  :  01;
  168B  :  09;
  168C  :  EA;
  168D  :  12;
  168E  :  E8;
  168F  :  F1;
  1690  :  08;
  1691  :  E9;
  1692  :  19;
  1693  :  E3;
  1694  :  07;
  1695  :  FC;
  1696  :  03;
  1697  :  F2;
  1698  :  DE;
  1699  :  1D;
  169A  :  FD;
  169B  :  0E;
  169C  :  20;
  169D  :  E9;
  169E  :  EE;
  169F  :  15;
  16A0  :  24;
  16A1  :  15;
  16A2  :  03;
  16A3  :  1D;
  16A4  :  EE;
  16A5  :  18;
  16A6  :  20;
  16A7  :  E7;
  16A8  :  F2;
  16A9  :  E8;
  16AA  :  ED;
  16AB  :  0F;
  16AC  :  EF;
  16AD  :  DF;
  16AE  :  EE;
  16AF  :  1D;
  16B0  :  08;
  16B1  :  F6;
  16B2  :  F8;
  16B3  :  1D;
  16B4  :  22;
  16B5  :  F5;
  16B6  :  DE;
  16B7  :  E8;
  16B8  :  E6;
  16B9  :  F9;
  16BA  :  12;
  16BB  :  FD;
  16BC  :  15;
  16BD  :  FC;
  16BE  :  12;
  16BF  :  0B;
  16C0  :  E3;
  16C1  :  F2;
  16C2  :  FF;
  16C3  :  E3;
  16C4  :  07;
  16C5  :  F4;
  16C6  :  28;
  16C7  :  FE;
  16C8  :  16;
  16C9  :  F9;
  16CA  :  0A;
  16CB  :  01;
  16CC  :  0B;
  16CD  :  FF;
  16CE  :  08;
  16CF  :  02;
  16D0  :  FA;
  [16D1..16D2]  :  ED;
  16D3  :  D6;
  16D4  :  12;
  16D5  :  F1;
  16D6  :  EF;
  16D7  :  18;
  16D8  :  F2;
  16D9  :  05;
  16DA  :  FA;
  16DB  :  1A;
  16DC  :  14;
  16DD  :  11;
  16DE  :  FA;
  16DF  :  1A;
  16E0  :  F1;
  16E1  :  DB;
  16E2  :  E4;
  16E3  :  10;
  16E4  :  01;
  16E5  :  FF;
  16E6  :  E7;
  16E7  :  F6;
  16E8  :  0A;
  16E9  :  FB;
  16EA  :  06;
  16EB  :  E9;
  16EC  :  0A;
  16ED  :  FF;
  16EE  :  E9;
  16EF  :  ED;
  16F0  :  08;
  16F1  :  0F;
  16F2  :  06;
  16F3  :  EF;
  16F4  :  24;
  16F5  :  0B;
  16F6  :  F5;
  16F7  :  02;
  16F8  :  EC;
  16F9  :  F8;
  16FA  :  F0;
  16FB  :  1B;
  16FC  :  FC;
  16FD  :  01;
  16FE  :  0A;
  16FF  :  16;
  1700  :  FF;
  1701  :  05;
  1702  :  F4;
  1703  :  04;
  1704  :  0F;
  1705  :  D8;
  1706  :  02;
  1707  :  F5;
  1708  :  12;
  1709  :  E4;
  170A  :  1D;
  170B  :  07;
  170C  :  03;
  170D  :  FF;
  170E  :  F0;
  170F  :  F3;
  1710  :  DE;
  1711  :  04;
  1712  :  F8;
  1713  :  F9;
  1714  :  F3;
  1715  :  EC;
  1716  :  FA;
  1717  :  25;
  1718  :  04;
  1719  :  F9;
  171A  :  16;
  171B  :  EA;
  171C  :  1D;
  171D  :  F8;
  171E  :  F6;
  171F  :  0F;
  1720  :  F1;
  1721  :  18;
  1722  :  E6;
  1723  :  19;
  1724  :  EA;
  1725  :  12;
  1726  :  19;
  1727  :  08;
  1728  :  0A;
  1729  :  19;
  172A  :  EF;
  172B  :  FB;
  172C  :  DE;
  172D  :  25;
  172E  :  03;
  172F  :  11;
  1730  :  06;
  1731  :  F4;
  [1732..1733]  :  F3;
  1734  :  0D;
  1735  :  F0;
  1736  :  CA;
  1737  :  16;
  1738  :  1F;
  1739  :  E7;
  173A  :  FE;
  173B  :  E3;
  173C  :  0D;
  173D  :  17;
  173E  :  E3;
  173F  :  F0;
  1740  :  06;
  1741  :  0E;
  1742  :  D6;
  1743  :  05;
  1744  :  FC;
  1745  :  EE;
  1746  :  0C;
  1747  :  15;
  1748  :  F2;
  1749  :  12;
  174A  :  02;
  174B  :  16;
  174C  :  04;
  174D  :  17;
  174E  :  19;
  174F  :  E4;
  1750  :  11;
  1751  :  12;
  1752  :  0F;
  1753  :  E3;
  1754  :  17;
  1755  :  15;
  1756  :  F7;
  1757  :  1D;
  1758  :  E3;
  1759  :  E9;
  175A  :  0D;
  175B  :  08;
  175C  :  09;
  175D  :  DA;
  175E  :  1E;
  175F  :  E3;
  1760  :  EA;
  1761  :  E1;
  1762  :  FE;
  1763  :  20;
  1764  :  06;
  1765  :  17;
  1766  :  E8;
  1767  :  FE;
  1768  :  01;
  1769  :  02;
  176A  :  ED;
  176B  :  11;
  176C  :  F6;
  176D  :  17;
  176E  :  07;
  176F  :  ED;
  1770  :  0C;
  1771  :  F1;
  1772  :  14;
  1773  :  09;
  1774  :  F7;
  1775  :  1B;
  1776  :  F3;
  1777  :  E1;
  1778  :  0B;
  1779  :  EC;
  177A  :  19;
  177B  :  13;
  177C  :  1F;
  177D  :  03;
  177E  :  F9;
  177F  :  14;
  1780  :  E0;
  1781  :  09;
  1782  :  FD;
  1783  :  E3;
  1784  :  00;
  1785  :  12;
  1786  :  0B;
  1787  :  EA;
  1788  :  DC;
  1789  :  EF;
  178A  :  1D;
  178B  :  EE;
  178C  :  15;
  178D  :  EE;
  178E  :  FE;
  178F  :  F5;
  1790  :  08;
  1791  :  F2;
  1792  :  0C;
  1793  :  EB;
  1794  :  13;
  1795  :  16;
  1796  :  E8;
  1797  :  14;
  1798  :  09;
  1799  :  E8;
  179A  :  04;
  179B  :  EC;
  179C  :  0D;
  179D  :  0E;
  179E  :  E8;
  179F  :  FA;
  17A0  :  0D;
  17A1  :  1A;
  17A2  :  FA;
  17A3  :  1F;
  17A4  :  00;
  17A5  :  FA;
  17A6  :  1C;
  17A7  :  FB;
  [17A8..17A9]  :  02;
  17AA  :  1E;
  17AB  :  1B;
  17AC  :  F7;
  17AD  :  FB;
  17AE  :  05;
  17AF  :  07;
  17B0  :  FB;
  17B1  :  17;
  17B2  :  FB;
  17B3  :  F8;
  17B4  :  F4;
  17B5  :  EE;
  17B6  :  11;
  17B7  :  E9;
  17B8  :  EE;
  17B9  :  01;
  17BA  :  FA;
  17BB  :  E4;
  17BC  :  F8;
  17BD  :  02;
  17BE  :  04;
  17BF  :  FC;
  17C0  :  02;
  17C1  :  14;
  17C2  :  FF;
  17C3  :  F4;
  17C4  :  F2;
  17C5  :  02;
  17C6  :  17;
  17C7  :  EB;
  17C8  :  15;
  17C9  :  E8;
  17CA  :  F5;
  17CB  :  0B;
  17CC  :  F3;
  17CD  :  05;
  17CE  :  F1;
  17CF  :  0C;
  17D0  :  EB;
  17D1  :  17;
  17D2  :  F1;
  17D3  :  1A;
  17D4  :  F2;
  17D5  :  0E;
  17D6  :  F4;
  17D7  :  1C;
  17D8  :  E8;
  17D9  :  F0;
  17DA  :  FE;
  17DB  :  E4;
  17DC  :  F0;
  17DD  :  20;
  17DE  :  1B;
  17DF  :  FE;
  17E0  :  1D;
  17E1  :  03;
  17E2  :  F8;
  17E3  :  0D;
  17E4  :  0E;
  17E5  :  19;
  17E6  :  EF;
  17E7  :  0B;
  17E8  :  E1;
  17E9  :  E6;
  17EA  :  DA;
  17EB  :  18;
  17EC  :  15;
  17ED  :  0B;
  17EE  :  F9;
  17EF  :  F0;
  17F0  :  EA;
  17F1  :  EE;
  17F2  :  FF;
  17F3  :  0D;
  17F4  :  00;
  17F5  :  E6;
  17F6  :  EA;
  17F7  :  ED;
  17F8  :  F8;
  17F9  :  1B;
  17FA  :  01;
  17FB  :  11;
  17FC  :  FB;
  17FD  :  F7;
  17FE  :  ED;
  17FF  :  13;
  1800  :  0C;
  1801  :  E3;
  1802  :  02;
  1803  :  07;
  1804  :  0E;
  1805  :  1A;
  1806  :  08;
  1807  :  01;
  1808  :  E7;
  1809  :  EA;
  180A  :  E7;
  180B  :  DF;
  180C  :  11;
  180D  :  12;
  180E  :  EF;
  180F  :  0E;
  1810  :  EA;
  1811  :  F4;
  [1812..1813]  :  F7;
  1814  :  ED;
  1815  :  FF;
  1816  :  F6;
  1817  :  21;
  1818  :  E6;
  1819  :  EC;
  181A  :  EA;
  181B  :  05;
  181C  :  E5;
  181D  :  17;
  181E  :  FF;
  [181F..1820]  :  05;
  1821  :  E8;
  1822  :  F3;
  1823  :  FC;
  1824  :  0B;
  1825  :  E8;
  1826  :  E9;
  1827  :  20;
  1828  :  DF;
  1829  :  0F;
  182A  :  0C;
  182B  :  EE;
  182C  :  E5;
  182D  :  E4;
  182E  :  04;
  182F  :  06;
  1830  :  16;
  1831  :  15;
  1832  :  11;
  1833  :  E9;
  1834  :  F4;
  1835  :  15;
  1836  :  EC;
  1837  :  E6;
  1838  :  0A;
  1839  :  F8;
  183A  :  12;
  183B  :  05;
  183C  :  E6;
  183D  :  1A;
  183E  :  F7;
  183F  :  F2;
  1840  :  FD;
  1841  :  DF;
  1842  :  05;
  1843  :  E8;
  1844  :  F9;
  1845  :  F7;
  1846  :  14;
  1847  :  10;
  1848  :  F0;
  1849  :  FC;
  184A  :  EF;
  184B  :  E6;
  184C  :  0A;
  184D  :  0D;
  184E  :  F0;
  184F  :  F5;
  1850  :  EC;
  1851  :  0A;
  1852  :  EB;
  1853  :  1D;
  1854  :  0C;
  1855  :  FA;
  1856  :  04;
  1857  :  1B;
  1858  :  01;
  1859  :  EE;
  185A  :  F5;
  185B  :  12;
  185C  :  09;
  185D  :  0C;
  185E  :  15;
  185F  :  1B;
  1860  :  1A;
  1861  :  E6;
  1862  :  05;
  1863  :  10;
  1864  :  13;
  1865  :  01;
  1866  :  E7;
  1867  :  14;
  1868  :  0A;
  1869  :  E4;
  186A  :  F8;
  186B  :  E6;
  186C  :  FC;
  186D  :  DC;
  186E  :  F2;
  186F  :  01;
  [1870..1871]  :  04;
  1872  :  18;
  1873  :  EC;
  1874  :  E7;
  1875  :  17;
  1876  :  F1;
  1877  :  20;
  1878  :  12;
  1879  :  FB;
  187A  :  16;
  187B  :  E9;
  187C  :  F2;
  187D  :  08;
  187E  :  F9;
  187F  :  16;
  1880  :  E0;
  1881  :  FE;
  1882  :  00;
  1883  :  08;
  1884  :  FA;
  1885  :  EF;
  1886  :  19;
  1887  :  EE;
  1888  :  17;
  1889  :  04;
  188A  :  0A;
  188B  :  09;
  188C  :  E5;
  188D  :  07;
  188E  :  19;
  188F  :  F7;
  1890  :  1C;
  1891  :  FF;
  1892  :  EF;
  1893  :  F2;
  1894  :  17;
  1895  :  F7;
  1896  :  19;
  1897  :  1C;
  1898  :  F4;
  1899  :  E8;
  189A  :  15;
  189B  :  F3;
  189C  :  10;
  189D  :  F8;
  189E  :  FE;
  189F  :  16;
  18A0  :  FD;
  [18A1..18A2]  :  F7;
  18A3  :  01;
  18A4  :  05;
  18A5  :  0E;
  18A6  :  FC;
  18A7  :  FE;
  18A8  :  07;
  18A9  :  EF;
  18AA  :  EE;
  18AB  :  14;
  18AC  :  07;
  18AD  :  FF;
  18AE  :  03;
  18AF  :  E3;
  18B0  :  06;
  18B1  :  FB;
  18B2  :  09;
  18B3  :  F6;
  18B4  :  EA;
  18B5  :  F2;
  18B6  :  18;
  [18B7..18B8]  :  FD;
  18B9  :  DA;
  18BA  :  DD;
  18BB  :  09;
  18BC  :  02;
  18BD  :  01;
  18BE  :  F3;
  18BF  :  0B;
  18C0  :  F1;
  18C1  :  E5;
  18C2  :  07;
  18C3  :  F9;
  18C4  :  F2;
  18C5  :  11;
  18C6  :  0E;
  18C7  :  11;
  18C8  :  01;
  [18C9..18CA]  :  EF;
  18CB  :  17;
  18CC  :  09;
  18CD  :  10;
  18CE  :  E4;
  18CF  :  FD;
  18D0  :  E7;
  18D1  :  06;
  18D2  :  20;
  18D3  :  22;
  18D4  :  FE;
  18D5  :  FD;
  18D6  :  17;
  18D7  :  0B;
  18D8  :  EB;
  18D9  :  00;
  18DA  :  EE;
  18DB  :  FB;
  18DC  :  01;
  18DD  :  0E;
  18DE  :  F5;
  18DF  :  ED;
  18E0  :  00;
  18E1  :  14;
  18E2  :  10;
  18E3  :  F6;
  18E4  :  21;
  18E5  :  13;
  18E6  :  EC;
  18E7  :  E4;
  18E8  :  0B;
  18E9  :  11;
  18EA  :  14;
  18EB  :  12;
  18EC  :  08;
  18ED  :  FB;
  18EE  :  DA;
  18EF  :  ED;
  18F0  :  01;
  18F1  :  03;
  18F2  :  0A;
  18F3  :  0D;
  18F4  :  F1;
  18F5  :  02;
  18F6  :  EE;
  18F7  :  FC;
  18F8  :  0D;
  18F9  :  0E;
  18FA  :  17;
  18FB  :  F0;
  18FC  :  FD;
  18FD  :  F4;
  18FE  :  03;
  18FF  :  12;
  1900  :  18;
  1901  :  0D;
  1902  :  FB;
  1903  :  13;
  1904  :  DD;
  1905  :  22;
  1906  :  FB;
  1907  :  F1;
  1908  :  0B;
  1909  :  22;
  190A  :  E0;
  190B  :  F1;
  190C  :  13;
  190D  :  F8;
  190E  :  EF;
  190F  :  FB;
  1910  :  06;
  1911  :  1C;
  1912  :  0E;
  1913  :  0A;
  1914  :  1A;
  1915  :  FE;
  1916  :  E9;
  1917  :  F1;
  1918  :  FA;
  1919  :  EF;
  191A  :  0F;
  191B  :  0C;
  191C  :  F6;
  191D  :  0E;
  191E  :  0A;
  191F  :  1E;
  1920  :  19;
  1921  :  04;
  1922  :  17;
  1923  :  FD;
  1924  :  07;
  1925  :  E2;
  1926  :  E3;
  1927  :  00;
  1928  :  EF;
  1929  :  E2;
  192A  :  07;
  192B  :  DF;
  192C  :  12;
  192D  :  FB;
  192E  :  13;
  192F  :  FD;
  1930  :  E0;
  1931  :  FD;
  1932  :  18;
  1933  :  1D;
  1934  :  F0;
  1935  :  F6;
  1936  :  2A;
  1937  :  F4;
  1938  :  05;
  1939  :  01;
  193A  :  DD;
  193B  :  F6;
  193C  :  EF;
  193D  :  09;
  193E  :  1D;
  193F  :  EE;
  1940  :  16;
  1941  :  DF;
  1942  :  04;
  1943  :  E5;
  1944  :  1C;
  1945  :  11;
  1946  :  13;
  [1947..1948]  :  12;
  1949  :  1E;
  194A  :  07;
  194B  :  16;
  194C  :  F5;
  194D  :  E8;
  194E  :  04;
  194F  :  EA;
  1950  :  0D;
  1951  :  03;
  1952  :  07;
  1953  :  E1;
  1954  :  E6;
  1955  :  FD;
  1956  :  1D;
  1957  :  FE;
  1958  :  F7;
  1959  :  11;
  195A  :  05;
  195B  :  F5;
  195C  :  FB;
  195D  :  EF;
  195E  :  1E;
  195F  :  F1;
  1960  :  FE;
  1961  :  E7;
  1962  :  F4;
  1963  :  12;
  1964  :  F1;
  1965  :  E6;
  1966  :  FB;
  1967  :  E0;
  1968  :  E1;
  1969  :  0D;
  196A  :  06;
  196B  :  11;
  196C  :  15;
  196D  :  07;
  196E  :  E0;
  196F  :  0C;
  1970  :  10;
  1971  :  0D;
  1972  :  07;
  1973  :  EB;
  1974  :  13;
  1975  :  0B;
  1976  :  22;
  1977  :  F3;
  [1978..1979]  :  EC;
  197A  :  0D;
  197B  :  EE;
  197C  :  E0;
  197D  :  20;
  197E  :  E5;
  197F  :  0F;
  1980  :  06;
  1981  :  11;
  1982  :  13;
  1983  :  1B;
  1984  :  10;
  1985  :  ED;
  1986  :  EE;
  1987  :  E9;
  1988  :  17;
  1989  :  1F;
  198A  :  F7;
  198B  :  FF;
  198C  :  E9;
  198D  :  11;
  198E  :  21;
  198F  :  FC;
  1990  :  0E;
  1991  :  EC;
  1992  :  04;
  1993  :  07;
  1994  :  E4;
  1995  :  FA;
  1996  :  F7;
  [1997..1998]  :  02;
  1999  :  E7;
  199A  :  03;
  199B  :  0D;
  199C  :  FB;
  199D  :  EF;
  199E  :  0E;
  199F  :  22;
  19A0  :  F6;
  19A1  :  F9;
  19A2  :  F6;
  19A3  :  FB;
  19A4  :  F0;
  19A5  :  FA;
  19A6  :  05;
  19A7  :  09;
  19A8  :  F3;
  [19A9..19AA]  :  F9;
  19AB  :  D9;
  19AC  :  F1;
  19AD  :  11;
  19AE  :  E2;
  19AF  :  06;
  19B0  :  15;
  19B1  :  F2;
  [19B2..19B3]  :  FF;
  19B4  :  0A;
  19B5  :  18;
  19B6  :  22;
  19B7  :  EF;
  19B8  :  0A;
  19B9  :  0B;
  19BA  :  F9;
  19BB  :  ED;
  19BC  :  E6;
  19BD  :  14;
  19BE  :  02;
  19BF  :  F1;
  19C0  :  05;
  19C1  :  0D;
  19C2  :  1A;
  19C3  :  F4;
  19C4  :  E3;
  19C5  :  F9;
  19C6  :  23;
  19C7  :  02;
  19C8  :  0F;
  19C9  :  0B;
  19CA  :  F8;
  19CB  :  0C;
  19CC  :  03;
  [19CD..19CE]  :  E8;
  19CF  :  05;
  19D0  :  27;
  19D1  :  F2;
  19D2  :  16;
  19D3  :  15;
  19D4  :  F2;
  19D5  :  E7;
  19D6  :  EA;
  19D7  :  11;
  19D8  :  EA;
  19D9  :  FD;
  19DA  :  F8;
  19DB  :  04;
  19DC  :  EC;
  19DD  :  01;
  19DE  :  F5;
  19DF  :  0B;
  19E0  :  1C;
  19E1  :  E6;
  19E2  :  1B;
  19E3  :  07;
  19E4  :  08;
  19E5  :  05;
  19E6  :  04;
  19E7  :  E9;
  19E8  :  09;
  19E9  :  07;
  19EA  :  04;
  19EB  :  F5;
  19EC  :  20;
  19ED  :  FB;
  19EE  :  DC;
  19EF  :  00;
  19F0  :  0C;
  19F1  :  0E;
  19F2  :  08;
  19F3  :  1B;
  19F4  :  E8;
  19F5  :  04;
  19F6  :  27;
  19F7  :  21;
  19F8  :  0D;
  19F9  :  20;
  19FA  :  DD;
  19FB  :  11;
  19FC  :  F6;
  19FD  :  E7;
  19FE  :  F4;
  19FF  :  FA;
  1A00  :  FE;
  1A01  :  F7;
  1A02  :  F6;
  1A03  :  F4;
  1A04  :  FC;
  1A05  :  06;
  1A06  :  01;
  1A07  :  0E;
  1A08  :  26;
  1A09  :  15;
  1A0A  :  E9;
  1A0B  :  0E;
  1A0C  :  D9;
  1A0D  :  E6;
  1A0E  :  FC;
  1A0F  :  28;
  1A10  :  00;
